#map = affine_map<(d0, d1, d2, d3) -> (d3)>
#map1 = affine_map<(d0, d1, d2, d3) -> (d0, d1, d2, d3)>
#map2 = affine_map<(d0, d1) -> (d1)>
#map3 = affine_map<(d0, d1) -> (d0, d1)>
#map4 = affine_map<(d0, d1, d2, d3) -> (0, d1, d2, d3)>
module {
  util.func public @main(%arg0: tensor<1x64x64x3xi8> {ml_program.identifier = "input"}) -> (tensor<1x2xi8> {ml_program.identifier = "Reshape"}) {
    %cst = arith.constant dense<[41, 40]> : tensor<2xi8>
    %cst_0 = arith.constant dense<[1930854972, 1088423974]> : tensor<2xi32>
    %cst_1 = arith.constant dense<"0x28282828282828282829282828282828282828282828282828282828282928282828282828282828282828282828292828282828282828282829282728282828292828282829282928282828282928282828282827282828282828282828282827282828282828282828282828282828282828282828282828282828282828282828282828282828282828282728282827292828282828282828282828282828"> : tensor<160xi8>
    %cst_2 = arith.constant dense<"0x695C90639000A35714256050DA8A1A581885DB4ED61D4D4C1F561C4A370B0E43989B7945C1808E79449BC544287A8F4A31D2544A7587124D833CE7428B19DA4F447A744A0E210C4A8F10D557E6BEE1521A02234E2E1BED41E0DE7444B40CA54EE1CE444BDD70B150D120925418CF9B4E0B91454F834EF27B3FDDC6553A6B6751EF37ED4D19C5EB519CDA204D33FBFF5073D5AB63DEBDC94562CF215447DAAD4E265E09412D6CEA44A413834A3248F650D79CA97BFBDD7F4E355D9678491590486B527B4CC118B848FD2B6255D2A46D57335DE55272FBD86CBC02904605330F495188024A72BE087BBDFD3A479546F96B40201F4990B07A60A8F5CF57089AF346BA255D7688578E5A9989C55345C9584CFF32695A682A6677851F09570AF44E7E18C01D5DE3DF714347189A4C18F95D56FFF17346B19E547356E6BF5A8AD4165C3449454A41B3837ED841A740147F114E88A46B4169527B47F775BB40AC79F94BE3C9AC42C161864D7F05684D9FE1F5404FA2AD4B39757447C42C52624FBBA851CF7F3E73119BC7789C4B9858F20CB74B9D8BAF47702CAA532856854EBA271D4F44CFF553B12949401389C96B4A63E76EBC37D2550790844CD3D3C24A4AFBC84AC4DBC2505861DE4ECAAE2D4586EBD25314930F483C4C884847720D42F057834D3E8E4A4C6F96925776B25F4AE1C9CE4E9DDC8C45051A5958E754D851E608B34AA7B4A3483A212E402B663A55E768124D49AEE24ADF00665BE29CC5499F5315488133B54C2DB40849EE0EBA49263EEC5797DD0449C208ED4D9C472B436892F0642A3F414F14743B7B9BC10B781B1276506966EB45FEE56D4F671BAB4FBA1F0F4ECF20875053B7714EF9E491482C7DAF5B79AF75504A7B1548BD61754BDBB3C14B"> : tensor<160xi32>
    %cst_3 = arith.constant dense<"0x2525252525262626262428262E262526262A25272725282727262626262B262827272B27262627262726262626272626262628272725262626252626272627272526262D262626272927272826272626292726262B2725252727292B2627272726262725272826262726262A2726262527272626272726282726272626262827262626262626262A252626272626272726262726262727262626262626272727262626262627272D272527262625262726262826252627262726272629272727262826272728272627262727262626262627262829262626262627262729262626272626262626262626272627262626252626262726282625252625282727262727262628262626272626272627262529262626262726262727272629282727272626262626262425252525272625262625252625262625262525252726252425252526252524262525252624262526252625252525252625272626252525262525252527262525262626262726302525252626252427252525242525262525"> : tensor<384xi8>
    %cst_4 = arith.constant dense<"0x3AD589488B889573294092549B865A75CB06F66D0834BA7A67F04F53C721AC70CB570B67A596DC50B167C27551239B4DE12317751D1E4E4F9E167359EAE73364C7E1A24CE35D6C6F650097669B8CA268BEDF62765A55A566D9ED0B5D2007FB54F2573A5D636B3346EDEB984ACB11B744C77E8441D160A2693E7F6A4E4EDE33631BA3A0528593CD775D134157E984366BD757DA5B36D16C5A5431104462CBE85717A0666F0A16357D2033485D4FE8815F3085C14B369F0E467452484A6C1ACE6A6C4A9D502F92C4502AE9BF5252E82460C6A51E74D5DDD75166CBAD599D87D4541EC25D4F0573456270ECFC539EACE068C492687042F287579EEDCC768F70FD430DCA204957A0E5404C1F5F697C352E7F6CC3DC51864E4C5FB0F3646235FCB45615668669554B5855329D01428F841269FE27BF40618B1178BF345C565EEE575491F3F766F22C6C5BC30DBC53DE314251BC8F0B7CD12DBD7FDF74BC5EA3BE0E47878D7257698D0B5157D11E459B0D8D7EBD69614C28F81A7C147DF969C6E2C64CB0F7A04272E49D528995C551AD62045F153EC965EA75335C736481617463D958AB23BC6539F2A666B016EC53329B1554D838137619B25B4664E00E52DD91136F1010A269425F176CF569606A53AE9D44179C8E7204D2A056CCCAC24B311A4F7CEEC7955D5A39194D83E3A56DAE003F42AC762C4EF4E458476E7B196A8160A860C35AD6408528A0747355D45084DA1A7A58A4464E7956404FE2312B4F150C194B748A7B5ACEEAD37098111E4DF679D25D1C680F467E86045F88B9D9702354FA6841DF6849F56D7B5990339F60A0BF8A4021A824560B85006AAF7D8D4A74DA3B5F7194447EB207BB7E66D0B84B46E689606453004A27D9CC5F9ABAFB621A03D7618C958F7AD453BF49A611797E52EB1647CF88BD5B4216DC7E87BDE56AC799BA79B94E397BD7C39842C2C2736402ADA87FDEFCB25B8F470142CD04614CB5838F67F078F5414745EC592292C17DE791A346DE776F4B6D09FA4AB6F3B55E47912F45441751584D14DD4A0F4D355A7F260F455DF395771138E87D6F667D4EACF4617A14B4C456A6EBE4448A65BC5876D1DD676B8DE0746958735DD3F7397002183848B0EF2A5C3CCB4056E77F35434BEA3770D3749460EF07B07146B67E4940F173778A4CA97BCF634B69D2CAC44CAD0E0B644447E44E96E78D5A999C29630650656736AE655881152179D87B5658FC673C490BE1F9484E256053AEEADA59D4E40F48399EDD4F79FCD164810514796946AD7F26306046AC7B7E6C6EB69B62B3B8A35015E9D646B1B90F495EEFA763EBED20530C5FE66E8F70D9681F841759FF7FDD7CD159314DE66FB1512BD60E597F68674D313D1C4AF3939A5AA385BE7B25B20B457FDB9C66A5B0524968F709579E187C40847F807CFAA4FB675AEC4745F47BAE696DABF14D3E2745743717924336BE6452506BF8563A381A5E0842DF4202C7A96259193479CE4F71444702F14E874FA56EC3CFB3474D6AAC5E8AB0B06525558140B738784D56F8F661F29B3240E26E6D6AFBB3C74DBBFC8369622C904873BB4B528E102A6B5D0EC7448DF6EA7A5D866F6D6646697D5C6B9C4C7FE8FA718C3C817FDD62675AD33C3672DD42534DBABD934A3B332D54CB36ED4735C9817FEDF7824A8725FA5E62E41A6D443A3A74E1F3265C2C492A63C525CD52AF5BE942B009BC52BFC039663EC0D95619CA126ED938364310720956A6F0535CE3F2DA670D8B076A370DAC6667E9F779BF45475B5A357E4D86B5F7638D7E83476BC54C694EB10B40AF048464C798357EE4B56E7E8154E5679D54726545DEC766F7C5C84A959B177E9DE16E4E8B8F5F78560AAF5ADBB7F26782F74757110C8D6FB530D34C9848BA635DC2DA445AD2E74298B4CE48012C435FDE5E2740341A1F79BC33894A0453247E96B40C547721B87DB23857792568CA5EBD902244D2575257E4AD1C73B57047571C20A8701905636456DCFD439402A24DC4DF4F6E42FBCD7E35A72244A90A81711E49C47847B4D54D8F23B56DCA92E6680D389870CB15BC5E4AC24A65255E564A77278A4D32DDD46B1C418D69561F43449D7F6F5E74C2F554CC9BCE5F21284A472BC84A69EF53A44097A3804DB339B94433880F492055EC43DA50416EEDA7584C"> : tensor<384xi32>
    %cst_5 = arith.constant dense<"0x282727262A27272827282728272F272727272E2726272827272727272727272727272727272727262727272627272727272728272727272728272626272726272727272729272928272727272627262727272627272727262727272728272726272727272726272727272727272727272627272727262628272627272727272727272727262727272A2727272627272626272727272727272727272627272727272727272626272727272627272F272726272627272727272727272627272727272727272727272726272627272627262727282727272727272726272727272726272727272727262726272727272727272627272628272727272727272727272727262727272727272627272727262727272727272727272727272727272726262727272828282827272727272828282827282828272728272728272727272B2828282727282B272828282728272728282828272728272728272828282828282827282728282728282827282728272728282727292A28282827282828282728"> : tensor<384xi8>
    %cst_6 = arith.constant dense<"0x3008865C3A29A3649EBB2D42D820C85B196ECC4BBFA70F77B7EBF9634CC71C489A698469008EAE4938DCE8698589A17D76B93867C1E4E754D41895548B38E24D055F627EEFDA235B7815B448FB6C9043D6EE58467B80737187EFB86BF7CEF17EC98C8050D429E758074F8E52BD4CF36E3E0A7A73B7C7D8623AA1E76A0173DF691D861B62C8ED4F568082F75DF993A458A14FBB6880C03259DF9F13530091024176FC3C605E680162FF2A3B5A54A63E400041CD578759EC669EF3E15902528A53B200A552E6EAFD5FA8B8ED7F257CD04E5D898656DEA8FC6C6B5C5662DDEB405A8527077DDC19617051617444773E905345C1134A29FCF279836D444E1CC1B8606DB8895DAE1CAA5CBF495667F617DE5A5A229C493A08E25ED594B15E4752827A4529154DFE4FDE7A1EFC026A4A7B3E56C82DBB40AE45FB72A016465189BA9063EB481660F035BB737B0C07403BD858788C79C2713AE388789FA9694D1A9E9143FCE0315D79B95956D211904D1DA5C4679A963276D5899364AA26C36C4513E74C5B3CA155945C9E4DCEE87E60D428CA63A6F1E662E0F1E74D0E7992554732D35DB5C6B75EA70A40738B60255B280A8C5FEB65C25566993D64AACB04602B468169BA843265BA45E35EC8A5AC6D4696D15618AA3B711CA8CE407B6BBA62BBAE6D466AE34569BA09E3456652375934D1226F419F595E40B89277DC445A53822ED0759B44F066EC2EAB633EE77A710FF4CC548C595349EC8CB06B91C5736A09BAF457A6BC3C53B970E14B842A1F63ED691377CAA13043236730725E5E366F2E6B30401E9D0257F211135EFDD37768B0B4DE6891FC3C7469288B782BB2C6628E18E06DDD1A5E6B463E60475665B05B9E650443DECB0963F7E73C6C6AB533792C20B679711BE449D7ABCD6AF76BC2639C82DB57B4D9ED43587D5C49B84F4D6EF9C5D25252026D7F99BF7949324415472677C75C2215BD5DD67D387B6B83976A0F86895371E4044125EAEC5B3C89614443AFDD7CE47B225C28C17A505393E46A7300837BB52138675793156D93FFF848B438DE40B196FB531B26B454E4CD2B71194F484A4D79BC5020637551F32DD775B17B7D7693BD136776B5DD60561806747E060C5C8F942E464731D662D34D725CB6A8EC51D7391E55962BA54D54A7535CDE749A58E8A97A6EC63944637A6B03738208AC620FD4106E81CDB47AD6D4F063A282527FFF5CA660CB30B4695A32FC5EF8CDF359180DFD48D7710B4EB7846C5A6171A57A958C59637185B65E9032335F34B4BA7F38F3E3549336E946E4920257E472704CAC1B426AA925395E8DFE135C511CE47FE5C51576A9C1716F61A9BC4F58B420494EE69A764A135E45D3853B49C84B086E4B92E64E9FBA8C6B201A9B7B2B2DBE56FA6E1C416850825EE880F65F15F7B073FD5ECD4FA8D6D15A4D445A598C156A5D1803CD5DFEC2F45BEB812E42778D5A5F16CC025F5DECCA5F3367C8503B7EA77C551523797D9DB944D277506C458164404E41845772CC2479555B47474F8616544799B8633C9A7B7819EC715242FBDB6BF5E4EA67D8F29067A5942C7021EB31721A3CF964DBF262767975586206B22678BAD1FB4EC8E64A7E54C8076650B08145F15AA4551F0AC372FB8E8646980D8F401420FD50D2F79645660E3C678F200A5C802AA5504564F14448B60D5524D6BD5EFC14E240F73BB86D28097062272657745A5C5E66CD85864F74B4A95EF8CF017838E22878CCD57A7E104123523E00D35AA244A246348EA748445B2A79908C2C417FD8FC537F6C9256FCC38E51B05B4146AC0DD078A7611666D8F2C86991BBF9474F77084E28B0BF7361C9A244BD7B554CC367666CB8D5897FE46FDF7A17B3625D17E79179E39947553CA19B404C82A56A71177455A5606975A501B050E2B4FB44834B7840463F526820AB725576921F4B0029E967F44F814EA9FF847ED6F710585EC3056586759467CD47EF772900167E4322EE5B89B9C3461254DC65E20B7E4D067EC36B4E18D66C6FED62507F557F63F0B03A71A4228074219A844EC128AE5ECCBB26605823287DC0A2E34112AC9149CCAB1465BFB1E47D960D284201879E650D0A626F92AF437ABC9600529938447E24607F526AA63E41B4E9ED6A849AAD5CFF2E867C47BDA47C540DE65A091E8F50"> : tensor<384xi32>
    %c49_i8 = arith.constant 49 : i8
    %c1104644408_i32 = arith.constant 1104644408 : i32
    %c1935178768_i32 = arith.constant 1935178768 : i32
    %c4_i32 = arith.constant 4 : i32
    %cst_7 = arith.constant dense<[39, 39, 40, 40, 39, 39, 39, 40, 39, 39, 39, 39, 39, 39, 39, 40, 39, 40, 39, 39, 39, 39, 39, 39, 39, 39, 39, 39, 39, 38, 40, 39, 39, 39, 39, 39, 39, 40, 39, 40, 39, 39, 39, 39, 39, 39, 40, 39, 39, 39, 39, 40, 39, 39, 39, 40, 39, 39, 40, 39, 39, 39, 40, 39, 39, 40, 39, 39, 40, 39, 39, 39, 39, 39, 39, 39, 39, 39, 39, 40, 39, 40, 39, 40, 40, 39, 39, 39, 39, 40, 40, 39, 39, 39, 39, 40]> : tensor<96xi8>
    %cst_8 = arith.constant dense<[1348780436, 1367962134, 1433442090, 1917182728, 1668251390, 1860171045, 1600428066, 1265384571, 1472567689, 1293328491, 1473753978, 1146795163, 1185869073, 1323938588, 1484973526, 2023902946, 1307369106, 1520229340, 1453153613, 1218064358, 1447100074, 1134607447, 1373475091, 1164118889, 1385646365, 1467975933, 1098793997, 1422819098, 1802855530, 1259655941, 1972501561, 1108942788, 1688501395, 1405907477, 1334401181, 1173337120, 1298996163, 2124256522, 1155468701, 2083864610, 1422246156, 1187903449, 1469806968, 1294324033, 1289220382, 1242939616, 1457581908, 1281712405, 1941165645, 1337913784, 1358338794, 1761198791, 1238309641, 1552163124, 1367545656, 1746724381, 1231000370, 1327456351, 1948866031, 1214142449, 1246063464, 1970252299, 1937484334, 1151989858, 1388275197, 1667475457, 1219429938, 1676740303, 1793047390, 1468334864, 1204283321, 1174141652, 1319333452, 1239867367, 1639632639, 1304369623, 1390065214, 1454163586, 1392948464, 1738270801, 1450620897, 1758465533, 1210234708, 1458911454, 2110301967, 1106903339, 1311948179, 1283883130, 1548360946, 1924725689, 1961078235, 1230938974, 1188319140, 1097959204, 1338875567, 1350164645]> : tensor<96xi32>
    %cst_9 = arith.constant dense<"0x252526272626262626262726262626262726262626252725262425262726262527252525252625252525262625262727262626262525262525262626262627262626262626262726262526262625252526262626252525272625252425262626252725252626252525252625252426252425252626262625252526242526252525252626252626252525252525252626252626262525252625252526252626252626252625262625252626252626252525252626252526252426262626252625252525262526252525252526252526262625252625252525262525262625252525262525252526252625262525262525252526262625252625252525252526252625252525252525262625262525262525252525252626252525262525252724252526242625262625252524262525252425252524262525252625252424242525252524252525252426242625242625252524252525242525252424242524252425252525252425252425252525252625252625252524252525252424242525252525252525252523242424252524242425252523252424252525252425252524252526242424242326242424242424242425262B2E31313B3C3E3E3E3E3E3E3E3E3E3E3E3E3E3E3E3E3E3E3E3E3E3E3E3E3E3E3E3E3E3E3E3E3E3E3E3E3E3E"> : tensor<480xi8>
    %cst_10 = arith.constant dense<"0xFB849640E0660051C1465C59D74E046DBCFBBE5D3CB5294402C13E474CEFEC5A968DB5547F47A05D9137425706062041BBB9B06EB8DFB4551E7FD5586FC81C53854FD858866E0F4519F54E56E9046A7DE8A4336C3DFFC361EF9C9C6D951C054ACBDFA76127D87F4513CC855610E706784E61F8736A805468A39D66710A7F994666ADAB524E48E84BCC0F6A4C059FBA56D2E4F05565395570106743519CB2C54B48622F40F962156795CEE06982047D782BB03662F134AB4F3D18F0696D4CC470278A14498FF099556DD2706432DED361643CF045FCF962501026B36F6A3CDC430FE1D74F7055DC4CA1C13F6C76319C632D26C95CB3DCFA72C30E0B794882D46C7516BE7ECC5D7B7EE26D8B7C62509272846889677A01C64F4A580A68FABFF255CEEEA95C7391784298A59B5DFEF55E7C32AAEC7323F65A6475850D45EFAC215D7BA81D725096364A5BA1487C6031956621337B5241842B4BD5640F563F364D7810E56078CE4C0752C8AE2752AB888F4854AD3C722C07DD6265570052F303C05415CDD76649973A71511E6A4875FAE64FD5B56143AA9FEE6E84FEE24A5C3D814645DAB24882106F4CF3015B6191FD47487085D0443A9B095D8A4F5343CDD77B4E5356706AB8084A531665A8449A269E55F36F386EA8C1C5587D6C6A6529C443444FD2E743E4AD8B47252A9F58932C7442C964504C3CDFAF756D4EAB7CD3449F58DC63A0529EFDF25EBBC053630A89987FB9B89C48EAA49E62DE64707E08E0A7588DEB3C525E74414FC1C17550CA20AB5CC1EC8758D4C9AE5613A5CC48ED2E5375DB083D663C6EBF6DA95B385372CEC159D1C58D5F3CDF6859E177F17AE4F8C070364BE46F9A2837402A8FE642AF48C44DA0FF63494BD9F36DED6B456D066A94474D67C46BB8500B62D5CFDD7E81836A7D8AA740452C1F0A6E92AE026ED10BB059E1C60448C986C8434484C66F43F4E740C441DF69506D8552D6192156EA64645ABF04A664DB0DEF5B810CF57F33B62659B27F4069A813A341D5890E4A92F38545A3BD1E4CE448D669350CE276AFD78A730BD68A605EE9CF400F065C4A42F3BD64251A8F52ADDD56445A7603585A26217B4B5D1F5A576D0A7EC56F0C4DEAC70E79E0DD72461483364499C0DB63BE33565623902F66B2052E42B56B8049C906674B0211C451F0AB2965F4DA46513E211E5923A26140D0F653623FE79B48140C465A9A22F27B2D4E5F5D33BA6B533CE13063C1828E76F396D04C07257F61C95F644FD906335BA71ED1573F6AD949FE59305551D91D4962D58C7B17515666AE8DE57A6F889656B527114AE7859A51F23C704097D4C6481BDC7E7970EF276506367742B9E0BA718FDB605DB2E04F70FB848E7AF8CBCD646B342D4A7043414C4F585C5DA58F75518F78D04E28E9767F9E813A45DC5AFB66AA512144A50F737FA67734601B7A136F573F78719084A04C0EBCE24EAFA1C37E601D325C56E85A5A544D7E6C23C468585D3E0879EC0BE344E7ED00737F988761FEF4FC68AFB21B6E4C377B4D57440158DC07CD7C96388641BFB4354F3193F46F81D3596F4821B3783F2FCD6863CF3648BB2DB0742F14EA7B74E38067018B356BD08A5B77BDC2DE777F25E0616CAD4C44615673458F3EEA4CFF06E15562BD715D16DC534C216ABC571B87606B0ECAEA4DD301EE7D49FDFB6D964F684EE9A1CF7B53689E61C2FCF8479D837F5BABDDE75D416D296EC8AE534FA4F09F5DA235175835FA1A798058C1672E13E45FD366917BD8B3D45C08A0D04C614DB65C0CE16B64B40775420D069F4FEB832C7A249F446C67A9044426F5234A4F024240D1BBFE44AF10E974A170C1743DA3AD522ABDCA461991A97A7702B5727C93367E222EE878BABF1D4D0EF91B631241A96B21932C5D5599BF57324F5B433A3FBF7098BC555D2701234DBC1BEE41122E4C6360C2A34DF164C4591640094578626840ADCAB5414E3C645CBE2419435DB7AF67436B82439F28E773465BF15AF1C8D86B3C5B3A4BA35AA257CAE481576E56066C613457451B34A97D1450F268CC21D477048ADC60306F1A66C974E25062697A66CF2D5D733CAB004866361D7D0D0B0873222F6364189B214C902E745C38600E5A5F08436E99DB5F6404E5FD658CD01B4E7856514D83AEDE494FCE785FF0D81E7C3F30DA6F55FF916693262C69DE5DBA4A1A6B955C0FD8995D9AA26479CC179A76A3DE1240C6EBCC60554B814085D61640723EE64C9D3FF24E932DF167A915A94F420C995DC35EAF6B0C57367C1439F844DFD9DA523942D47E3DBA75421C96EC6D7CD455739F5AA05320A5636CE7F2676951A69244501C4E7794B69E69205D537B7BF1D068D6A76378C857F867B9BDF77B22846975F53B7957EB99DA4D9FA0254A2E4FA74641E29877151C61622BDD175F3AEE86432FF8A543F2541E6F0F474E4DC17C6E4D4E1534459CFA0154AE65716AE9EBD756A258144866E3C04E67B0D877CEDCE6419C50266442408A58FD7B8802AC12ED01ADA09B005E6A03002CAC0100B40F010032A6000022BF000069BA0000A03A0000806B0000680600003D010000640000003D000000480000006E00000022000000400000003B0000000B0000002B000000230000001700000008000000130000001000000015000000040000000500000003000000010000000100000004000000030000000100000002000000"> : tensor<480xi32>
    %cst_11 = arith.constant dense<"0x28272629272728272627272727272727272727272728272727272828272727272728272727272727272726272727272728272627272727292728272727272727272827272727272627272827272727282727272727272727272727272728272627272727272827272727272727272727272727272727272827272827272727272728272727272827272627282727272727272727272728272727272726272727272727272727272727272727272727282727272727272727272728272727272728272727282827272827272727272727282727282728272727272727272727272727272727272727272727272727272727272727272727282827272727272728272727272727272728272727282727272827282727272727272828272727282827282829282927282828282828272827282827272828272828282828282728282828272827282828272728282728282827282828272828282828282827282728282828282828282727282828282727282727272828282828282827272828282728282828282828282828282828292828282828282B28282828282928282828282B282828282728282928282828282828292A2A292E3134323C3C3E3E3E3E3E3E3E3E3E3E3E3E3E3E3E3E3E3E3E3E3E3E3E3E3E3E3E3E3E3E3E3E3E3E3E3E3E3E"> : tensor<480xi8>
    %cst_12 = arith.constant dense<"0x83320B49E3051D5EC35F3E400D9F4051894C9271623F835CB4A44A748B10FE4E4396734E39E222487C57F350D1482C5FC99DB569E378955157C0265A404C915E5050E5523BDDE75F014569421EBCF161ABCF084F1C87EE5600D5AE53776C455B9E657A50F979AA51C0E4B2708366377D808C756E74147B56FD65FD4A7394DC5B5F88B45BAF6FDB7FBA9D034BF92C2C57FE3F87558712E755CC1ACC54D8D3F046BC6CCC4DB476355E89E7A4444558D9534F24A15E0859F65642F94F4DBD7C51672C4FC571886EFB4042C34E45DA58A44360BA874999B3665389090959E1CCEC7789D96E57E68AE87353216D550AF886604F84DE722EE6384E9B42F74EA96F4C5F8389DF5C2EDC8A7AF0C2F546D71E49479F56BA5ADCA2F955C244BB5FE57986528769794C29FF984F7BAE7F4FE9248F4F12F1745AA023486105F2D14EBA4FF47E76524653F9D75C4A4F6E375111ABA449CA8AD663F2F74769C6C34062BCBAFE53554DEA55064A0A4F417C054597DCF555B0C6C1466BB9977FEEFB91504E41454A94DB5545000EFC7B25B1904F351B43575248E24DAB4FDE7D4AE935479F3DA44B5E2B38637968574EE3058B58157F7344C6BB4E41CD49A658CE2D745B49B4A455213107591091DF566666FD42AFBCBB4CA8C4945081C7634ED6B55143A30FDB683B7D9441D8DDF7498934195D2E447754CF2B1C54E5F8205988C70141E474886157E70F452AB16A683E1F145354F9ED6F21093855B0B4975588C6187EF2AF7D7029ED0E65FDDEB2402D08934B66EC8576F9966C4E8F213A541C007557B1742C703A0F3C721658B5646348015E7957447960098A5E78F14A5007C60D74BB0B3B5E954726486CFECD40229EEE4195990D4D3CF60540E82BD7464411C64809791A471D55104776487D4E1AA11A45D58BA563419C205C9E43B3615C88F95BD06EEC4387B3644E24FF15560AAB8252C20D7E5E9D946D406A0015666DD5E96547A80576F51CE8543F0077529E439D57A18E624894DF2D47DE9ECC43ED71DC4222C0EA5479913E40969E9D4368620B4D890E186383A6DE4FA800FF6D95F5D641EF08BD485DBA567D2F300A5DBBA4BC533AF6AE583276346D09E8997BFA23C846C6A69648D360457906F96F5C372B61406F505371F4231342CE35E3499FD43363158B115413036E7D2B5DFD6E85C99256A52E7B7FC729265BF63CF07826BC8E4C2BE8A2419BB3E24D8BC0F84D303FA6460A94414E7CCE744A6928BF571FBC7B5EF9186248F1F7FE4BC508AD50B6245C59039E8C4BC7EC4146B032D850282D7068112AF06F89961362CD5B3E44A2250C52465FD059D04DD25FEA170A56215A8B7004528F48930ADC4241FCCE4BBE0330509F445E5CDBC16A43E175EA401036706DAB5BE667767CA87A596D4C4295EF275C0328F76255472A57738D315420A84B5D5F9ACE72F46B554D5F7AC264738035502A8AF048C5653E4B43A3BA496FFFDC526068A14C491A277454F34D5DEC7E474965E21F4DB412664ED5651546BE3EF743B332E757D3542D476D6CFE52A5BF2A76525BB24A6A06D845A973E872688180596E1D0F661EE8AA519E2C387F156C727AF7FFAF53889FDA4CA9D0C84DF5B32B6D13C1327F957ADF4ED4230A7B8B82055CA33CA9657582EB754BE4277BB541B54D7FA4BA67ABADF17724F0BD623F234445B501B05A0F44235F8ADD4A41366F5C7E433AD24D1C700B72302DCB6BB19233403E20E1495B43B45A21F9FD681592075333FFB2727F196475F1CA3C77F9700072299DB873E602ED74F45E1343A5EF5366A107D26DD4F9E270062A984F67D1DC43BCC3E14088509D51B7B66F73A3562152ADEF427F2B6EB04A618B004406D476768A16C05D0594CC551734447620907F7FC06F447F5EA9A7530DC30A6E0A999A47D99944583D4DAF4713DCB97F61223A7A5934047855004A600D739D6B02D8B46CE28F4E69FFE7DD41843BB06DB656064CA5D7AD6C316EFF5DBBBD3F55F5222F6F6131804D2F06915A90DAA17288219560B9CB06410F5FF65E040F1B68EC5B495209A1507B68F2D569284B2C4161BE7A45F0ABB2690883DB4337A0D8417F21BD59E9F62741784F846511D9EB6B66387B70F57C3A6B41049D61CA447A45F71C0456DA371A56FFECD570724D025E57F21B4474F1A243A2A96A6BF470EC7AD66EEB6E91C1CC7896ECC45F15319F5ED529195982A56459327E6B56E977BA557D47275EA595F84B90DAFE5388E4686CBEDE1C777896B1630EA5DF5BC838E64FE9BAA25FD1294748AFE11D732CD99963A4A4B06F4EEC1D4D47DBE95109C80652B62E7A6D2FF7EA57138DDA6D1CBD684250526D56CD7F4A48DA1B11568217C45682D08857F740B341E376DD517AC5274E62F59269710B6B50A245AD7C684452557BCA504AF236785CEF164B5DFA57EA626A97824B8D3B5350FB27BB792EDEB356F625C57E87509549F558614520228F43FA7E2965854C2F63AB3D7F689691B77FE4D48077BB350D01725E7501D6487100BFC103007EA700003F140100315D00001A950000ABBD0300C8100000C4050000940400007E000000280000007900000012000000030000000A000000230000001C00000005000000270000000F0000000800000006000000030000001100000013000000060000000400000004000000010000000000000002000000000000000100000001000000"> : tensor<480xi32>
    %cst_13 = arith.constant dense<[40, 40, 40, 40, 40, 40, 40, 40, 40, 40, 40, 40, 40, 40, 40, 40, 40, 40, 40, 40, 40, 40, 40, 40, 40, 40, 40, 40, 40, 40, 40, 40, 40, 40, 40, 40, 40, 40, 40, 40, 41, 40, 40, 40, 40, 40, 40, 40, 40, 40, 40, 40, 40, 40, 40, 40, 40, 40, 40, 40, 40, 40, 40, 40, 40, 40, 40, 41, 40, 40, 40, 40, 40, 40, 40, 40, 40, 41, 40, 40, 40, 40, 40, 40, 40, 40, 40, 40, 40, 40, 40, 40, 40, 40, 40, 40]> : tensor<96xi8>
    %cst_14 = arith.constant dense<[1314631074, 1118062242, 1249526701, 1263412799, 1780028368, 1936542188, 1398666628, 1397614821, 1144411366, 1363209924, 1340259490, 1516483307, 1389084155, 1694998979, 1122737600, 1381887660, 1563391128, 1240863622, 1277930169, 1086639851, 1448833899, 1342970276, 2090162871, 1539215774, 1150886350, 1672567621, 1113765981, 1918249240, 1446961239, 1180200642, 1761622688, 1232099057, 1311446466, 1767087370, 1374497165, 1159375512, 1705680521, 1255409107, 1878381936, 1677159502, 1969764339, 1246343031, 1156655354, 1258049469, 1770186424, 1677636939, 1362894757, 1477470060, 1083021052, 1356557942, 1589812283, 1139301749, 1634132226, 1513678801, 1341213025, 1506307853, 1569863970, 1697297932, 1442740891, 1111949218, 1337660901, 1529620046, 1403021665, 1554136943, 1395302882, 1143541911, 1790580041, 2079043121, 1282175151, 1233928338, 1537079626, 1532622301, 1416052768, 1106463582, 1663301252, 2023977371, 1720104974, 2116840818, 1191661132, 1672384599, 1777913508, 2084816678, 1484244949, 2094867885, 1504075174, 2079667430, 1492166435, 1184357796, 1086250176, 1153007770, 1433143556, 1221244802, 1541657047, 1637755041, 1199639653, 1097145667]> : tensor<96xi32>
    %cst_15 = arith.constant dense<"0x262626262626262626262626262625262526252525252526262526262626262526252526262525242525252626252526252625272626262625262526252626262626272526262626252526252625252626252626262526262625262625252624252525262525262525252626252625262526252525252625262526262526262525252526252526252525252526252525252425242525252524242426242425252525252524252523252525252324232425242423252424242423222522252323232525232425242525252423242525232525242424242524242524242423242524242423242323252425252524242524"> : tensor<240xi8>
    %cst_16 = arith.constant dense<"0xABD8A34DE1A2EC4F6414FF6C828C1C56C9AB81578DEE8F59F696354653C7275CD7C79875D29FDB5A0A2A9A6239E39244258A945A5739A8676607CC45BFAB4C780E9B4E45BB2F435D3BC80262EE20A346B6B7FF42FAA0B95719785249D868A569421C9A6938626149AC251762A6E1E06F5D5B3D5E85972456BEA7A96D1854395B7BD3735553EC4954551B5B44A88722522FBD29623EF1E145DCDE114D1084B340803AB05250DE6244D18E775B0699F87AF9DE915FBD51B440FDCF69491C299456623461403F1EFB6AAF5F8F4CE48C205A56C4C457DFBE477EF169906603D0CD68849AC84890A5237983806C404634C869368F704138753566803456668CDC0F6C5CCC825C1D85467717C218748E325C5B12BCBF739A37937EAD15AE68FD9CF34C173CEB4516220D5CC546B77B2DD7A94227F1207B5C8694482EDE00433A36BD7B0CA73774E7BAFC48978E13525BCCCB78F8AF9E6C74B37B55DC04B674D00856726375E47C8247194A69E3A57A210D4B7EC2B28857994CA140B84CF67D67C47B4EDDA8047B29F5AB546EE40F6AEA9AE677B65F52571F093A5DA411A951C7ABD746DF80A143AACD31442466566D3FBFDD707EBF3D54D6FA4A76BB36354D3957356C6F89126D4758517C48808F5B98B4AF4BA50D2648D5DD7E51AEACCA7D12A91545C02D576A8C975D56D3AF2E76D8A0955E7A6C9765E87A925E8985EC449304C14195FA8044F87BD15A1668034ABFFF2C663604E848FA0F30437A3A1A6BFFB5644D9C979A4A5EC03055A7441E671257125F9DE0BE7FD5E6284F41C6A079CC65AC476886445632D73C4991B46774C30A41529C558C7181437C5F3629CE41D6A3F44B71F6514AB3534D431E71B552CF251A739E273E46C8E7AA5CA97C15543B3F3F405B100E7083FEB16261C82C6C0F91FF704CCDA2498DCDB751C309865D83669C4B695E4140025DB67B702F17737C67AF4C182A6945F5C5E46978A0434560009641FF96C9694BB693672EF1EF76BCF9E64E30520174C676A2444C40DE58B0B410446E2E954D7058A85569AE5F44E7FF2C7D94902F49678B8E45F2FAAF76E7B6EB71ACF19B77DE928E743F09B3685C5CFD4BD0E6BB7378068057B16A8E46BBFCFF54786B5474C56DCE5DC30564525F0A524F62DC7E527DD7A273F9B98A7E07F209457EC2F47EAA440D78C7F74364AE567D583297636B8A8BCA6A47787B5D98781E508C6BD455D70CCF7A9D9F5D524C0E3C5FE9D839645272BE4615856D49A4C7B96EC7DD8B51B3E9D0778E7F00608141334AE56B58507757A557B75B8E5F49C301622E4534494F28B86831833064A9558F7E090C255A42E0274D07D00D705F0EF47C"> : tensor<240xi32>
    %cst_17 = arith.constant dense<"0x2627262726262726262726262627272726272726262627262627272727262627272626262727262727262727272726272727272726272726272727272727272727272727262627262726272626272727272727262627272726272727272627272727272627272727272727272726272626272726272727272627272727272727272727262727272727272727272727272728282828282827282727272828272728272827272827282728272827272827282828282828282728282A282A282B2A2A282828282728282828282828282828282828282828282829282828282828282728282828282828282828282829282A"> : tensor<240xi8>
    %cst_18 = arith.constant dense<"0x5B1C5E427E0A0370BB388545125F926436DB034692A5644DD952356B17B803469855324692998259415DFA4C658F2B538C6A57428631E27C1A856E4B7F0AEE74DC88F440E7293472A3F0C8555110A84D67CA144A5D045F419FFCE3753048844BB3912F50805BDE705A7D576B8463C87DBCD9647FE535A84003FB354F691B4C66BE77C25FB9514444393DCB41DD6E5A4542E0A56CFDA49F7436B7B344B3F1AC4CC097CB69ED715E4376BAD47A61487979E73B4973B11FE05A09F4A943C4FC705F55ECAE6B17505661C3D6687833F0F0798D9A76476D537866D5222C47B3B4154D6AA471560C187C7FDCA1AA697975747222042E6C901EE17E61FEA666F43C8D5DF5A2AE7E74818E6DC0FCA866AD1EDC6BBCFBF24348BDB849777C057DAF44A541F1E4077DE7CD7F4AE1FADB713B9048646AA99450BBF6AA6EA29838754CB8B963A2A58865E4AD35611E620B70B383AD451301964AF0756D7121CAAB680B2F966A3DB9C144C9B2F56BD8A8A27096DC064DD9617D571679BB4ADD471D719F7C1B6CB08E2B7589E68775C96A2F4B5B8A7742223C136AEAADE25BB0075B6577C9F85407A5776D5E74797153892F627736DF729A81FF7153849945133EC3790431C548AB72FC42F302976F60FABB6A38154757B333B0713CBFEE6C0FEFDF744C82E2632E41A243789FD970F42F584DF133A460DE63B87DF0D10B79C702DA6AB4B829590A1EE35E8BA8F26CAA7CCE4C933E0F45FFC5D955E03C6E7F92DBB86AF172947596B9464FEE7AF45609AE95619D53CA7778124354F16C4C4E340BA7700FDC377E325FB749C6CB3D50459AD26A0E086C6821EB226EBD904353A1516B60980E2E4D0A93986AAD9BB1423DD275430A13EB40B5D8F767F63B2876F679A94B186E044ACE815B7F3611B54689287972B0FBC245F125F54D0F4B6464BDC91140B4EAC16F90C2A6444240507129DF6C41B3AD556C83D9594D5C24584CC335BD6E8D647842ECFF0970CF737B4E117BA26025F7B553E3E9C47AFA6A326C94FF3E6A77D84D4DD8A06D4D8D7D8259E1E800478C2D625946CC354CC978F14DAC3BDF70F83A015DFFB3A060E459266E77F7045F2F0D5E4E097B9657980CB84C798CD664CA140860C985AA46F0894B5B61AC67467B099A51648480761B862B76D244925C914AC243D7C87B60597EC04AFD4FF147E5E9BD72C18DCA4CD717354E323A1A6D77018A64A827267FA4C8F74853B47852A006714C03959E577B01CB6369A4834042BBD64C3AAFEB41AA4FDB4A83F7A36878D4B161D7E3094C629D2060DE4F776F9E657A499300E779920446401DD65347C692485E072B255B1634E775181E3E5A7B59CD41"> : tensor<240xi32>
    %c2140498155_i32 = arith.constant 2140498155 : i32
    %c1608900243_i32 = arith.constant 1608900243 : i32
    %cst_19 = arith.constant dense<[40, 39, 40, 40, 39, 40, 40, 39, 40, 40, 39, 40, 40, 39, 40, 40, 39, 40, 39, 39, 40, 40, 39, 39, 40, 39, 39, 40, 39, 40, 39, 39, 40, 40, 40, 39, 40, 40, 39, 39, 40, 40, 39, 41, 41, 40, 40, 40]> : tensor<48xi8>
    %cst_20 = arith.constant dense<[1427264026, 1305610605, 1729903493, 1958027297, 2066467077, 1281356549, 1482663768, 1637790892, 1545520861, 1567780749, 1117581911, 1928857421, 2060011903, 1528155920, 1466251209, 1996338231, 1100191570, 2096550858, 1193754120, 1691657820, 1339240859, 1604119269, 1328934410, 1120245035, 1696873162, 1728900688, 1756043955, 1349768491, 1194123178, 1699081094, 1112602213, 1228787924, 2078087421, 1107066728, 1870550486, 1920839757, 1242082168, 1280246359, 1111475173, 1179171131, 1413982860, 1382868485, 1532424161, 1992018687, 2009179672, 1691091093, 1305964825, 1395548722]> : tensor<48xi32>
    %cst_21 = arith.constant dense<"0x242426252727262627262626272726262625262526252625262726262727272627272725262625262626262627252626262626262624262626262626272526272526252526262626272627262526262525262625262626272626262625262626272525252526262626262726262424262627262626262527262527262526262626252525252626262725262625242625262625252626262625262625252426262425262625252526262525252526252624242525252525262523252425262626"> : tensor<192xi8>
    %cst_22 = arith.constant dense<"0xF8F5AF6B24D70877C2D5AD67833A6E406500C3690C3EED7835B2C064B3F7FE5B8FDDA360FC89FF5AD59CD959E6E9C84287639E60E7FE7A6F4DBC44680FD4DD768F493D5864788E42F38F65478213C257B018EC4FD872C35555622C5DE747F04BB5353765EB24105B6F33E659988DB5636F3B31613A02E67F6496FE52A076635EE79BB65BF77BC0770989CD67C46AD452BD900D4D98987B7F2E145446AE64A564D0A28E41872164757F5FC64828C0EA526ED2845708F9C45F40DD2759E5BE6F4FBF87D75D4B1EAB401D8DF96F249F7A61D62E7F6D00BA8F6AD7451B42E9CCEB5472AA5556C5F7E37CAED44352F807D875C5C3367E356BF96698669C458F1F1B69D1B55055D067D346D27C246DFB655248256A097DCF9D5361F628B178C24674559E8D386109D67C6054C7577B65108C6561E6E753AD16815B627B907A403B05705FF298573FBA826515A53E4FADC3C34AFA7B9E4EB314246D26183E5CDBAFF573383B637B555E375A7BA6C6790627F0420B725C4016DA974428EAEB7BFA18B262D750655EA5147543B60F1F45E7A23B443689BA413EC9ED5FCFEE40746E5F8D6F32B50E596CDD484481B759794EB8B37A8D4C7B546EE4DB551CDBD07271AF294786A93A4A8096E978FF1A2D406B5AF954915A8A6857C4A64C520346562CE67A6029214B7571C4C94CAF0242708FE8206566D73E48AAF84E5C6FFA5561EA2D9F4A62B30F7DBA07954C52610D4888914C55C0D8965C5F09064215CD357692930277A078EA4482964E6E0133A951822CEF4C385C72409FD5945095BE0A57553EDF6688A15E680CC10A60CB322041870337455340CA714577F24C94CABE6E940E4163A1B48C5950D116714A278C5DB21984553F4BA0615AD4C04C2BBA717315395F5E0C757C4BA5FB57414E45D87A3B30E7475FF4784840FAE058555970432E6C6B7CAF3D044863909E51028C0068F02A93470D75645CB2E34B727C2FC4640D2E797F95FC4B411C430951877F4F462672E156B5BC1D79EFE5F0539EAB1648DFFC9F7F0AB4546AE2F5647F32175660557A4B7545535448D19C746E07D19A50B185B05B"> : tensor<192xi32>
    %cst_23 = arith.constant dense<"0x262628262727282728272727272727282728282627282827272728272627272727272627272727272728272827282726272728272727272727272827272727262728272727272827272727272727272728272727262728272626272727272828272727272727262727272727272727272727272728282827272727272728272827272727282727272727272728272827282828272728272828272827282828282828282728282728282728282928282828272828282828282729272828272827"> : tensor<192xi8>
    %cst_24 = arith.constant dense<"0xFD2C4C4E3BA39E5509F8085A0B9DF1417A353142D53B0C515485AA5BC90B4962C645657F9F90AE59938AFB56D260027C65A2B24D00034A69853D206FB74675565718EC51EDAB7D496D599D48F847F3450749D45928D93F535FCE5071DDD3F54D9A031D5D6D468958F1EEAC5521E8ED4E01F7694B7B83FC6967C94B73B25DE05981A8E9469939D54C5292314291A386636E98D3506C29CB5365A677684436B54C4D3C897AC1315D582190974F4BE542554ADCFB69FD9DFE51DEB278643855834CC962FB5F5CD36F790D74C179A12ABE54AC1D1F41BB0F2C4C168652578EF99C592F4C657126B68551FD13216BFC38DC4CE8FDC047A4EF4A649C3F5048E579C6400247F9599CE24E7CC182C05DB1370C4D12D82D5BBA5A7D53DFCD9A53DF075873E40EE25CA7105262917F8B516C1DFE45DA685D57A773D25A9938FC4BC2F64F495DBDE774BB53377322D52F6062EC1365D2FBAC66EB6B0960CBF3B7580882F9656DEB984DCF97D240784E9A4A85ABC95EDB6B34481A97584E3ECDBD5FD0E5D56D31E56162E111F064249DE340A13CF3613056FB491A00AE5FC67BBD4517E1135A88D23D51441C094482F4734F809651480231165F9427416AA15E3A44B856DE43AFFB095990563A489EB1606C08E90E45077A7B710BBB62650123F77838B440432EC8587121A8A07379C489537EDA1E4913C32E4D8021237ADB20BF62560B8B761B859B46EAB1245BACF21758BC871048C8E74264BBADDE48E26773756A0E39454BFD6B649628C14F015F3D4A910F44485BE81E537B07CC5ABB2D4A5F0D90DB5228F51461A9F6596CA387535D5FAC684E761C7C4A071C2D7D4C6B2040C48169616707F86DFA1D2A53846B0A753672FA42E0036072C5B6A5743DAE097B472ED971A3181E715626147377EA14780740F845A5A6B4706D55B071E7EFA14C7DE90D5D1EC55E7769DBCD46183C207274B9E95758630D79D736677B29D76D5110B1A658CF7DC763FBF01C416906EA6DBD540B56C8C3DC51FE2E2A53ACE8AA52FAB3F34512E4DB6A127FDC56B756BF45F631E35AB926DE5DAFBB724058765E4EBCA1165A"> : tensor<192xi32>
    %cst_25 = arith.constant dense<[39, 39, 40, 39, 39, 39, 39, 39, 39, 39, 39, 39, 39, 39, 39, 39, 40, 39, 39, 39, 40, 39, 39, 39, 40, 39, 39, 39, 39, 40, 39, 39, 40, 40, 39, 40, 40, 39, 39, 40, 39, 39, 39, 39, 39, 39, 39, 39]> : tensor<48xi8>
    %cst_26 = arith.constant dense<[1123860580, 1627720649, 1903663294, 1232523218, 1401592830, 1373006219, 1137616482, 1443023865, 1091777245, 1449449645, 1184274828, 1234872667, 1254235926, 1153578956, 1082502493, 1142373368, 1806934699, 1224375496, 1263635370, 1374759728, 1977489770, 1276851604, 1152972447, 1291366088, 1922886284, 1229871955, 1481618349, 1100188144, 1076531011, 2058246833, 1165922416, 1340813084, 1737063773, 2107274529, 1209334932, 2122791214, 2086941322, 1164648048, 1184595170, 1904444247, 1262050816, 1336054345, 1152787022, 1379233536, 1278944258, 1275472514, 1281878530, 1251472942]> : tensor<48xi32>
    %cst_27 = arith.constant dense<"0x262626252626272626262626252626262526252626262528262626252625262627252626262626262626252526262625252627272626252625252526252625252526262626262625262626262628252525252526262626262626262626262626262626262526252725262726262626252525262625272525"> : tensor<120xi8>
    %cst_28 = arith.constant dense<"0x4DF70C75FBEF8E76D2A5CA741FE87846DC0D5F6E4D2B5A58833888725501EF6E943A5565C5A7CF7F5469505B0E99EE5D9B5E8943B9B45377048BB26DFA6CF37B0383E241930A9640B43B7F406A1497607BB3326825C7A56492612340A55D6277BBC1AE742847D26BD9883B74EA201F47DA174F6933CC0E5E1555A959B8A88B66DC19044817950342B24DF65D171D426C1C54D47F1200356FAF97EE5EAC41B14D4CD3A666932A9D506CA2FB435E758741AF6C2A47A19CBE6ED446FF7AA7FC385543C4CB406E8B1C58CB98204AD0ABE47BBA3A90702FB3CE6614E072535A2B907779B20F4A72208645D1C0B24D1FBCB5733295FD44EFF82E653F302B5B53F2C7415808264BA5BF5A6D4913DB537D749C6A805F2A7B78149F79A8FD486B4B6E7D40C8D13C6395DEC16A17C88844E25A46798B20DB47FA98896F6679E95B230A7C432B0FFB4294DA5B459F72DE423295987E9A08926CFBBD4E7EE3D1A741ED572F7256D78869A17DF06D534D6E7CEEA27F709BE5717A2A0A614F6310F97D459CA47F19F21F675D86806099F5A5533C3F0E4992A7C354C5FFEE78A09DC9588504596B54A9E6781D800D74FA0D4C6E6932D948E0F54D66BBDDB878F9604E69241A7B47611CF449D1DCA241FEA1786BEE234574238F0B40B1FF994CF799574623A86E64"> : tensor<120xi32>
    %cst_29 = arith.constant dense<"0x262626262627262626262627272626262726262626252626262626272627252626262626262625262626262626262527272626262726262625262626262727262525262625272626262626262626262726262626262627262626262626262626262626262626262626262627262626262626262626262627"> : tensor<120xi8>
    %cst_30 = arith.constant dense<"0x5FCCF94B4C237C60E086E9635D70A849DB81E16D85BCA47AEA8C5A5EDB8E335202C534495517BE4D81181854E5089D7FA2A2ED6E4F584A642FA72A56C9782B4E25E6F87A9918496615BF506BE881D95AF3667E44DF5FA750AAAFCF418F1B8E527CCB9F420D40FA429325D166959C3C7857F29660AE48AA5DFDFD495F22C6FB71D179794D759D9D530534187AE0BE5C72A38AA3720EF29D6BA8767350AD9B9A5CFD65535E14FA0D4857A8EE5C1B9D8F43ED81DE5312DA857FD883A8402DD40A618D52BE661DB71050D6FC227736C66B53EEF38375DE0C7C77AD317F4924733363A1C736403950E1686BCBAD5443467A7B28C73651A8743A6C69371C79A33A9E6216656B47FC38554D5231ED4BE2382D52C9DD5B4C044B917BED22C458B91C2E548E1BC6617F63A65DE4160D506272675B6CD796537C7A4D6041CE5A55C1D96577CC8D1A4F908402652FD5DF6FC433106F4C26714B72361D4FA955187E5A4EC75127FF8C67CE4C156C2FCC0D529EA49053CDEB206C04A9457302E2D841F717B352966E4E532686545352C59062B60FF8703864E06CC4354F4D5122BB68EC86146230DABB4F6A07CE406B71A550212BB87852381949C9D8EA633FD13248AD3FE678EE39BD575E27B958784681709A098545604BA256C67951555F639E416B7CBC46"> : tensor<120xi32>
    %c2136511470_i32 = arith.constant 2136511470 : i32
    %c1391170981_i32 = arith.constant 1391170981 : i32
    %c25_i32 = arith.constant 25 : i32
    %cst_31 = arith.constant dense<[38, 40, 40, 40, 41, 40, 39, 39, 38, 40, 39, 40, 40, 39, 40, 38, 40, 40, 39, 40, 39, 39, 40, 40, 39, 39, 38, 38, 39, 40, 39, 39, 40, 39, 41, 39, 38, 39, 39, 41]> : tensor<40xi8>
    %cst_32 = arith.constant dense<[1476576914, 1672018455, 1684587382, 1656406316, 1456967732, 2019821068, 1107157859, 1783079108, 1429621236, 1578097844, 1194161460, 1254924813, 1414765658, 1203566629, 1530835531, 1262156553, 1590381856, 1867794903, 1273795553, 1091512177, 1287740223, 1112493503, 2100772816, 1470127567, 1259592313, 1261703670, 1209260828, 1186903117, 1389055659, 1541170242, 1357410368, 1765458038, 1890169449, 1260497823, 2095589203, 1941099424, 1107080622, 1245535579, 1137591776, 1769848976]> : tensor<40xi32>
    %cst_33 = arith.constant dense<"0x252727262626262526262626252625262625272626262726262626252725262526262626252626272726262626262625262627252626252627262625252625252725262627262526262627262725252625252625262725272726252526262426252626262526252426252524232525262526252625262626"> : tensor<120xi8>
    %cst_34 = arith.constant dense<"0x16B9ED5F602DBB7B8FC55579993C565C1D537241AB5D07418B8CDE4983E0BD5112F9A45BFF1E3B508CDEA35B6230634CEB6D2342F7B5B348998C186A9038B467D1ECC45735B72B593B3C1B7F973BB95B010F3F4A05B8074764BFF56145F48F4C593BCA6E374D2A431B7399491F483C50D4347B7D1F4CA4626E1F6C492B5A007355C8B5526BC3FE64DD64D55A96050F45E90549460407B54F3E24746780CC957CAC121665CD812D456A53E34C3B159B6CD84F385548329D60C944456DA576EF69A31E125DAF39265EFD9BF7758AF499566D29C55B95334C6A5AFEFE52F6962C541AAE427B4A9CD078A1DDED7C386C736298891A4C6C0F8E4040097B418F5964533BD75C72A3778B57E8D5AC6B7FA13B6CED6F176D5DACD1520CB15C5C47BD896FBA05E9521F5C324DBE3282731222E949ABDE0977C6E29343F2C4C95B31E3FE4C69E99C40AD61DD4D84A7314FE39829509A9E837BEB03114CA2115A6CC70788766972427C18E40B4EA989644DC7724651F3D87942ADEEB1412F8D1B5AC2B02342A50EC84AF2F0665A8ABBEB673B47544C2359D8515DD4D76CD7633A6ECFB9DD51036D906D57705251FAE6E867B95B9C60C67F184330D10D5DD1A7DA56BE8A894E2B5FEB6527C5676234C238469CCF9D51F5642B4163827D77F11B4754828A8A54"> : tensor<120xi32>
    %cst_35 = arith.constant dense<"0x252626262626262626262626262627262627272626262626262626262626262626262626262626262626262626272626262626272627272625262626262626262627262626262626262626262626262627262626262626262626262626262726262626272626272726262626292626262626262626262626"> : tensor<120xi8>
    %cst_36 = arith.constant dense<"0x461CD54EDC1643724560C8475113F1637994DC6AA29A7847E5EA595CE798B951B6550E4DB62ECF608A3222424B43826391560B72A5336E62D714EE70033D3C68F69CBC62F278D17EC446566609C5894F9B5C0B449501E754F4C1A971D7414A42F84939513FC6805C688A1D4714D6784178D0D040433F2142FA76F75C386925700C901D43CE39FE58D8DB2B63B9845F58F0AEEB559EA8A16D7B9397415D20A85010471A4E19C2F9699B405666924E3F65A00A6478FF2F26580001EA495FECAF5456F5DD78A28DC75084E752511D9DAD54C936A85C564B577A70FFF07072F5DC462F8C6F4ACB239D588C4227614A56FB42C887F95005370677609947504110B24A699B0844D26E1F7E04DDC949E7A54076C6347C5715FBF948B6EFEC514A039652671267492AF5B44B29AB47481354745F36ED896012CEEC68B1059C4D0439DE55E3E1865988C5184C0B66956B7AADED480BFDA75AD56C3D50909C044B6AD248556BDCB462DE94FF4191B3CE53B786E54EA4578D5723D24C6ADCE21C6D307F55586BBBAC5548BE804ECB94575CA9EECD5F9C4FCE5082D5E44191B2BC6DB561E96AFEA5264D470A8E42669994435BAE1E45209BF7632FA930584053694E7FBA1C7D2B81205B0E73FE41D4521E492499FE575AC1594B194B7F69F893C86FE376DA48"> : tensor<120xi32>
    %c1942687389_i32 = arith.constant 1942687389 : i32
    %c1825212155_i32 = arith.constant 1825212155 : i32
    %c-8_i32 = arith.constant -8 : i32
    %cst_37 = arith.constant dense<[39, 41, 41, 39, 40, 39, 41, 39, 39, 40, 40, 40, 40, 39, 42, 39, 41, 41, 40, 41, 40, 40, 40, 40, 41, 39, 39, 39, 40, 40, 39, 38, 40, 39, 40, 39, 38, 41, 40, 40]> : tensor<40xi8>
    %cst_38 = arith.constant dense<[1758418868, 1323067868, 2113881826, 1280770878, 1205373507, 1164670236, 1235255087, 1103912997, 1987210633, 1467716117, 1180888769, 1383939768, 1343254016, 1128062143, 2063322828, 1740218678, 1931464919, 1432428989, 1163674372, 1970988953, 1220557467, 1117985277, 2102777624, 2120069966, 1754813910, 1253060624, 1913322007, 2058224861, 1552341148, 1156257479, 1268461423, 1162025684, 1286963949, 1609559939, 1356003234, 1696570931, 1204565529, 1953789137, 1895804329, 1251848341]> : tensor<40xi32>
    %cst_39 = arith.constant dense<"0x24262726272627272627262826272627262625262627252626262627262727262726272727262627262627262626262624262626262726272626272726262626262628262625262725252727262626262726262626272626262626252626262526262626262526262527232526262626262726272526252526252625262626262624262626252526262726272526262526262626252626272426262625252525"> : tensor<160xi8>
    %cst_40 = arith.constant dense<"0x7D3A14557EA1AC6A6D5EBD7CBD8060456E99B17B3FF7934458075D72DAA21A79D899964CB5F4B54B01801559FCE9015C6EA8445B6B19D86999E7B45BDB4F096CCD89DD697D83C05B590CFA51B9B5374E6010014CCA6CDF5153BFC64A7786235E8307DA4F825794442DA6114345946D661BA142593E65A95B07135D4F21C1F37D593DA6788D85784AD6105C5BE6FE666B5F04BA5F9B3F7E57F0BA155947B46D45B1F88C5D4CD01E7155712A5C40DEAC5156DAC7464B5F424C6DB44C4DFD2C2A566B5CB644BEB3DF493EF48A483761235781A5A873DAA5D75D2D2368470B8AE7630E7019449EBF684F5B4623567AE2697F80180B7DA467934F46D41A6A63F59552E2AA845EB755A77201A0D178DAC47E63FD8A3570517D9752BBA6F54AA3309C7C37023E47C305504CD899C179BB70067500570C412BB2375FFDA2E644560FCA486A726B7E5C92384A0754426976FAD14AAE3507687A1D44512D5C1C40FC95D6623B74604D2E8CF24637AB66691B918C462DE44E4E728E5F6077A09158BC73F242B57653743F41F655C743256C17475B64541D82509DBC6247C024386BB11CC14B075B0344E176A97FAEB8BF78A8473D4DB1262741923B5B528B5FD8534B286F4AA115EC761F098E6BBBECF757429D9C7567AC225189E73A7BC33183644D3174790B1B09648212A75E05E48D70EABC3C7C33132F7ED6D04B65C0E00952854E606364FE80549AA87C491D17C960C8577F5C2042416837D1CB551B244D4F5D4F4B5A98C174494A665F4FB184A16E7F8E277729F89F45900D9846D5C53E6DB0A69563EAD31368E83C1178655793590FC926777FDE33512F6238612DB86473E5D9DC701B8F076B380776562298776F0F11EB6E95473C4BD39F4241D7C71D5F4D9F1F4F"> : tensor<160xi32>
    %cst_41 = arith.constant dense<"0x252525262726262626262626262626262626262625262527262627262627262626252626262626262726262726262626262626262626262726262626262726262626262626262726272527262627272725262626262726262625252626262627262626252727272626262A2626272626262627262627272727272727272727262727282727272726272726272727282727272726282727272727272727272727"> : tensor<160xi8>
    %cst_42 = arith.constant dense<"0x9D5319682F00D0571D72345C5D06BC41477AD662339CE65015862377BBB81B43A76CD15E530B9C596D62184C406E387B48F64840F3DCD74F07651265C004E357A1AD87446244A845B3AA19675D5DF46619907142D2A45A5793374F5268662D6C5A5F5048CC9D004AE3B5917F7D427749D54CD95557D7837E230AD54D6CC7AE49230DC14A84640C4427C7C74749C1CC5D2EC09154405A1A60A48C38723084C554B7FCC67DE556C85425BA216EAAF3AA75A6D39E4C94807D4FAF5C6740F3F56C5D2F87E5482FDF5C54BD66CC54BF400D61985626552D11B664D7C21852406E817B6647155ACACDC25E9C5ACE4E9DE1D16940BE1B5FDB05564886DACB4844641A6D13EE1A532E12F54A159CA5532B41E847CCA2074C35A2A55FFDABDC62F6DC5E7BBF3749590DE8C856960BDD747ADA784A7D1EA3568979546C593DA472536BF17CD32AA943E242AC4C0AFF72553FE109519B1F9E51BC663173C39930400094AB6DEDDB7059D9F603480FE7E544CA44F641FF36067098D24A523ACE8359EADD4673D48EC54E59289A53E6C9324E073C9647D003617C981A5C79CE14A6605B77ED4B3DBCD748C762AC4EA0FCEE5855FD7F5B224221537F6BCF76EED18D464C915147994C164F98FD467130C1C97A9EEA51518C691C469D5B0D79A906DE7C333CE4645A3CA152248E3F70311D2B4C41FBE167860A8167F81234715CA8DB6F24C78D5002DF316AC0260B682CC25B79BC71B2541C54AF6864BE3F5C43E88C61C338E44624343158997B1C75434166429863BD5B3226A5748A7D6375E6C97F7107CFFC6520B2706EDCF2D973FC63C74BF97A9D4D6858C57EC52C5E438629316C1C05E57B4844FA684D70585A78C36551BA70E45FA04D9D539BEBB048284E2F5E8FC9F951"> : tensor<160xi32>
    %cst_43 = arith.constant dense<[40, 39, 39, 39, 39, 39, 39, 39, 39, 39, 38, 39, 39, 39, 39, 39, 39, 40, 40, 39, 39, 39, 39, 39, 39, 39, 40, 40, 39, 39, 40, 38, 40, 39, 40, 40, 39, 39, 39, 40]> : tensor<40xi8>
    %cst_44 = arith.constant dense<[1958948083, 1508806903, 1129768078, 1523262878, 1117905683, 1325259004, 1166640929, 1460278138, 1132612881, 1535724739, 1140858980, 1331291109, 1572844267, 1316264738, 1327833323, 1805141649, 1121945350, 2038141857, 1753887592, 1567988604, 1477193228, 1128554551, 1356308623, 1830406199, 1264350802, 1424285166, 1389640903, 1991548108, 1219485348, 1550256201, 2083853215, 1205372951, 2006827616, 1533017392, 2074060300, 1831902292, 1665459575, 1086208626, 1570214919, 1982021968]> : tensor<40xi32>
    %cst_45 = arith.constant dense<"0x272727262727272726272727272626272726272626262726272627262626272726262626262627252626262626262627262626262627262726272626272626252625262626252626252526252525242425252426232424252523252325252325262524232525232525242524262526242425252424242325"> : tensor<120xi8>
    %cst_46 = arith.constant dense<"0x2F968A5CD519AF5597A7345710D2924CC8B85855E851834ABA12E16119A6EE616000954AAA9C2D6748AF0B6F746E4B775988404F28D9AA4158D7284DB71B0B7EC0E777651301CC42700A4A6DD3C8FB6BE8D32B5A4AE5C443ADCBF5631F16E64FA2DDFC709AC959506A340C739A2DDF417A9EBD420055D84B0CF91F6A9C3C176CDEA8CF54C5380C46EBBC0049F0662E406E0F0C40EDAB144C4206717FC8EA87414ACC924DC61E1B5FBA50695A43D21D45C3A9845A64CA4E4BF5740463501BB754F821485A43785B53374B384107F6F549E7781D48E474AD7798D75E45B9F3CC778CE1887E1DD25A683051194A800A7346EB236F6BAB627179D065D64DE914A845E6CDAE449997D847FBAB294CC665C6596A96304D437B924E74A28B7C63891B6540B9C46168881C4FA0851B5D95321F51EECCBA63890BF15C7CD76262BA35A845165094461AD161763B3C635A264F8273CFE6F64E6F16B16B237A585ED49FDC41CF176142AB62D26D3E9FBD781436A54140660D4AAA2958510A1B507D12E2DC53A5AA2278B88EAC580CF050507595A57BBD6EE6478E49815A841EC167669FF452243A2B76A8360573B51BB04A7DF7BC59149B017BF63B2E7410F4CB601FEDBE6795AA3A5272EA2455DC8872640699AD447A8B485B7F48A159B5A91949E00DAE67"> : tensor<120xi32>
    %cst_47 = arith.constant dense<"0x2626262526252625262525262626262626262526272526262626252526252625262625262626262626262627262626262626262626262626262526262626262626262725252626272727272727272627272727272727272728292827272829282728272A27282A2727272828272728272828272727282B28"> : tensor<120xi8>
    %cst_48 = arith.constant dense<"0x6E1BB076850BF36DFE149B60184F18496F7FEE7A683F97597693D46C11A30748D42D2B67DE290345E083576FE12CE3688117067D5C4649734DEEA05A6555FC70F7D8EB672319C357A11B2948690F725F584FA575631B7165B26E8356BC6C57518A0AD167A608A96D4A8D074E5955326120053B789E1DA74F65E41E43F9BC3C4398127863190943555E2E795B8A189865A2A60963E7412E73D39E4969E1D7CF5F946FA746930C02462A1B4C7AB31FBA65EF4D9F4FD00C4C557FD55F738CEBB9421940034B079F69546650425039AC10570FF05E57266CE95F527A286F38123C5C4453346FDE5F7B42ED547D60EA574444F5860970D714F3530D645741B406E051C0E08D552094B35815BCFF7D2BA61441D6CCF14AC68A1070205091511773AB71F4A0D871F28F7C484D2EE35A0294E349148ECD4A2B91CA43CD753768481EBF4AC413E1643A88036CD6B60B51F7D9DD72D9E9475EFBD95D50CE8C2A57A621695A7D240A7C2D6DD95DFC32DD795C97D55B2349E25F767FD25CF59CB65A2B8C8168F061D16D49C8557147BB8C6287C89F498FB5524AE1949A6000368A549B69F84A3F6D6B6057CF4B415277FD65DC20F976683E6C5568390E408FF1584E59CF5E45D9076854432E82525F92D74C80B3214E9D86715A02F512760FDC3C70ADE57777"> : tensor<120xi32>
    %c1980469084_i32 = arith.constant 1980469084 : i32
    %c33_i8 = arith.constant 33 : i8
    %c1765608801_i32 = arith.constant 1765608801 : i32
    %c-6_i32 = arith.constant -6 : i32
    %cst_49 = arith.constant dense<[39, 39, 39, 39, 39, 39, 40, 40, 40, 38, 40, 40, 38, 40, 38, 40, 38, 39, 40, 40, 40, 40, 40, 39]> : tensor<24xi8>
    %cst_50 = arith.constant dense<[1453242035, 1167042772, 1233904679, 1624836188, 1825725873, 1329377165, 1681701552, 1849529603, 1932330832, 1253496498, 2143370169, 1675978163, 1907094896, 2085299812, 1231638256, 2032553963, 1123852431, 1273625593, 1707620449, 2017147940, 1961576122, 1998834421, 1945868916, 1191489165]> : tensor<24xi32>
    %cst_51 = arith.constant dense<[39, 38, 38, 38, 38, 38, 39, 38, 37, 39, 38, 38, 38, 38, 38, 37, 37, 38, 38, 38, 39, 38, 38, 38, 39, 37, 37, 37, 38, 38, 39, 39, 39, 38, 38, 38, 39, 39, 38, 38, 39, 38, 39, 38, 39, 38, 38, 38, 38, 38, 38, 38, 38, 39, 38, 38, 38, 37, 38, 39, 38, 38, 39, 37, 38, 38, 38, 38, 38, 38, 38, 38, 38, 38, 39, 38, 37, 38, 37, 38, 37, 38, 37, 38, 38, 36, 38, 38, 37, 38, 36, 38, 38, 38, 37, 38]> : tensor<96xi8>
    %cst_52 = arith.constant dense<[1834337162, 2139704729, 1295051422, 1584794985, 1853725495, 1997134558, 1817885793, 1345762979, 1163736745, 1738195885, 1147432337, 1167784138, 1665366207, 1706755698, 1363983130, 1866633031, 1084067767, 1970456754, 1588096944, 1851564968, 1653938794, 1331621560, 2064821973, 1456892403, 1692518134, 1176264624, 1550147977, 1226587682, 1366366840, 1448359871, 2051900895, 2118967563, 2064768025, 1636282867, 1453159525, 1117756008, 2115202338, 1847666214, 1237990694, 1246070705, 2132436412, 1304384457, 1610066538, 1788431751, 1938371756, 1761672912, 1525384349, 1704022328, 1815944755, 1286280598, 1794150327, 1467670974, 2025219957, 1398819742, 1233627331, 1355136307, 1359718263, 1506888074, 1697992037, 1668466585, 1478042691, 1378846814, 1855299861, 2104106565, 1122672290, 1174476702, 1139689450, 1636120237, 1897919542, 1599301286, 1215684200, 1569610966, 1454301628, 1257702497, 1823414764, 1475299920, 1778367610, 1602525344, 1131298057, 1217440446, 1500534313, 1767614334, 1215116058, 1082027002, 1601990444, 1246055483, 1561073621, 1280554300, 1477375718, 1669373866, 1552234073, 1075806098, 1226489410, 1407086783, 1313471140, 2104108132]> : tensor<96xi32>
    %cst_53 = arith.constant dense<[37, 39, 38, 38, 38, 38, 38, 39, 38, 38, 38, 38, 38, 38, 38, 38, 38, 38, 38, 38, 37, 38, 38, 38, 37, 40, 38, 38, 38, 38, 38, 37, 38, 38, 38, 38, 38, 38, 39, 38, 37, 38, 38, 38, 37, 39, 38, 38, 37, 38, 37, 38, 39, 38, 38, 37, 38, 38, 39, 38, 38, 39, 38, 38, 38, 39, 38, 39, 39, 38, 38, 38, 38, 38, 38, 39, 39, 38, 39, 38, 38, 38, 38, 38, 38, 39, 39, 39, 38, 39, 39, 38, 39, 39, 38, 39]> : tensor<96xi8>
    %cst_54 = arith.constant dense<[1782690171, 1969087163, 1937779173, 1242647672, 1449549536, 1163736976, 1477078872, 1832215813, 1402779063, 1311365973, 1615383119, 1194066608, 1979875754, 1781853985, 1851529412, 1134673400, 1359921594, 1545571364, 1584104355, 1823282167, 1160512141, 2016001958, 1948975542, 1462475697, 1217687237, 2068202571, 1261278432, 1391077784, 1586810614, 1222696962, 1191150700, 1223881789, 1618240146, 1708839141, 1106626434, 1180119282, 1105723201, 1980702829, 1933888603, 1895891467, 1247971999, 1161572416, 1199919224, 1138909172, 1140956487, 1953213377, 1427987569, 1572047731, 1154875362, 1689030088, 1222182770, 2040035952, 2133871215, 1370966421, 1580747060, 1622328245, 1642473388, 1463182605, 1915861431, 1439395821, 1428484828, 1461183425, 1228703269, 1259725883, 1156966601, 1796357966, 1301313600, 2127843591, 1852777503, 1649350092, 1177795100, 1281971206, 1141590934, 1283352529, 1170659151, 1747013864, 1750739053, 1102105200, 1631547095, 1361823986, 1659189378, 1673923379, 1542765396, 1706965458, 1270155433, 1609736283, 1629160079, 1798210503, 1429956234, 1433318343, 2021861966, 1917643656, 1617994998, 1739522742, 1466716798, 1372520689]> : tensor<96xi32>
    %c1899219683_i32 = arith.constant 1899219683 : i32
    %c2086460944_i32 = arith.constant 2086460944 : i32
    %c2_i32 = arith.constant 2 : i32
    %cst_55 = arith.constant dense<[39, 39, 39, 39, 39, 40, 40, 40, 39, 39, 40, 40, 38, 40, 38, 40, 40, 40, 40, 40, 40, 40, 40, 39]> : tensor<24xi8>
    %cst_56 = arith.constant dense<[1359645826, 1183285301, 1661960902, 1399192674, 1676966778, 1604811029, 1435503836, 1872836056, 1461673516, 2142542589, 1995567942, 1362180659, 1311601558, 1996606874, 1383911396, 1772681228, 1661956233, 2138549930, 1672432294, 1844350825, 1293780509, 1844240915, 1536445541, 1090403265]> : tensor<24xi32>
    %cst_57 = arith.constant dense<[38, 37, 37, 38, 37, 38, 38, 38, 38, 37, 36, 36, 37, 38, 38, 38, 38, 37, 37, 37, 37, 36, 37, 37, 38, 36, 38, 37, 38, 37, 38, 37, 38, 37, 37, 37, 37, 38, 36, 38, 38, 37, 37, 38, 37, 38, 37, 37, 36, 37, 37, 37, 36, 37, 37, 37, 37, 38, 37, 37, 37, 38, 38, 37, 38, 37, 36, 36, 38, 38, 38, 38, 36, 36, 38, 37, 37, 36, 37, 38, 37, 36, 36, 37, 37, 36, 37, 37, 36, 37, 36, 37, 37, 37, 37, 37]> : tensor<96xi8>
    %cst_58 = arith.constant dense<[1207680065, 1317194335, 1228227827, 1757593759, 1089197080, 1711464563, 1828013174, 1363727005, 1748074779, 1142175331, 1298646442, 1135834343, 1077252458, 1807905883, 1710629417, 1553228566, 2086871119, 1279203608, 1130059919, 2137168044, 1506657898, 1159561398, 1830143035, 1307491566, 1122994979, 1512469920, 2018345581, 1327869140, 1199992166, 1406671509, 1719803220, 1209425752, 1485660465, 1608996035, 1337483414, 1469519916, 1908305346, 2075538857, 1859340134, 1559742242, 2071850297, 1364117379, 1332336349, 1468184003, 1243134257, 1617437285, 1587243351, 1913190428, 1185434114, 1210626674, 1175964330, 1078893251, 1149341964, 1238101885, 1661681604, 1255297165, 1371378107, 2139159315, 1487248762, 1618069244, 1078741061, 1189793230, 1472299735, 1303351736, 2073109215, 1134881605, 1456491665, 1373698256, 1122228929, 1808003877, 1886294179, 1868160360, 1247368681, 1220053460, 1813912892, 1782504537, 1470264868, 1112232180, 1636554840, 1920779734, 1728545651, 1298043482, 1682656639, 1650584327, 1983525048, 1634600068, 1419472775, 1704186237, 1897714036, 2065148534, 1139645095, 2027292399, 1150471490, 1412278244, 1424323659, 1631055898]> : tensor<96xi32>
    %cst_59 = arith.constant dense<[38, 38, 38, 38, 38, 39, 38, 38, 38, 38, 37, 39, 39, 38, 39, 38, 39, 39, 38, 39, 39, 38, 38, 38, 38, 40, 39, 39, 39, 37, 39, 39, 38, 39, 39, 39, 39, 37, 39, 38, 39, 38, 39, 38, 38, 39, 38, 38, 38, 39, 38, 39, 38, 39, 39, 39, 38, 38, 39, 39, 39, 39, 38, 38, 38, 39, 39, 38, 38, 38, 39, 39, 39, 40, 39, 39, 38, 39, 39, 39, 39, 39, 39, 40, 39, 39, 40, 39, 40, 38, 39, 40, 39, 39, 40, 39]> : tensor<96xi8>
    %cst_60 = arith.constant dense<[1201070993, 1235902918, 1265276331, 1627937987, 1461232746, 1540093600, 1077489115, 1201410549, 1551583243, 1206347286, 1152165186, 1484358913, 1685898845, 1585017396, 1472967110, 1725033707, 2017318623, 1991420830, 1877853416, 1557250538, 1878177347, 1961431286, 1216153568, 1092356778, 1365866182, 1558320052, 1860427838, 1817600159, 1266690691, 1212165067, 1695225661, 1319927801, 1088420442, 2144503290, 1963614667, 1700607608, 1196587640, 1114743853, 2099028149, 1088825507, 1098087296, 1571490412, 1519006697, 1333614889, 1141931482, 1694830814, 1250193034, 1565926487, 1377043553, 2021351718, 1075814168, 1646464091, 1957014523, 1732455880, 1802818917, 1331471053, 1751903534, 1108198158, 2022492148, 1735619588, 1719058588, 2007645759, 1527200054, 1202326812, 1223292436, 1678686897, 1890547795, 1180790492, 1199847145, 1378800955, 1815489257, 1767770637, 1158852473, 2013132878, 1611266766, 1552742304, 1991806783, 1567402988, 1244651706, 1826330196, 1099125439, 1389023961, 1563748034, 1549086388, 1154925873, 1351984495, 1955241014, 1977216414, 1962361612, 1146893340, 1685507002, 2103928346, 1620701399, 1651695310, 2024185966, 1654325584]> : tensor<96xi32>
    %cst_61 = arith.constant dense<[39, 39, 39, 40, 39, 39, 39, 39, 39, 40, 39, 39, 40, 38, 40, 39, 39, 39, 39, 39, 39, 38, 39, 39]> : tensor<24xi8>
    %cst_62 = arith.constant dense<[1275952521, 1113439740, 1274120546, 1969160766, 1290319796, 1333024577, 1338064904, 1085621819, 1426593652, 2100578944, 1483484811, 2139974163, 2099044678, 1156955200, 1623767823, 1174752306, 1274858451, 1626473178, 1187344877, 1322867695, 1220878624, 1112777374, 1529523446, 1776304223]> : tensor<24xi32>
    %cst_63 = arith.constant dense<[39, 39, 39, 38, 39, 38, 39, 39, 38, 38, 38, 39, 39, 38, 38, 38, 38, 39, 39, 38, 38, 39, 38, 38, 38, 38, 40, 38, 37, 38, 38, 38, 38, 37, 37, 39, 37, 38, 37, 37, 38, 38, 38, 39, 37, 38, 38, 37, 37, 37, 37, 37, 36, 37, 37, 38, 38, 37, 38, 37, 37, 35, 37, 37, 37, 37, 37, 36, 36, 38, 36, 36, 37, 35, 34, 37, 36, 36, 37, 37]> : tensor<80xi8>
    %cst_64 = arith.constant dense<[1663189120, 1968707456, 2003018880, 1317785344, 1984495872, 1374043520, 2069511040, 1795340928, 1489164544, 1184291968, 1313494656, 1089781632, 1804037632, 1332306176, 2144118912, 1075124096, 1587376256, 2145028992, 2106502272, 1281887360, 1744072576, 1780578304, 1633117952, 1310128768, 1563808256, 1908387712, 2122368896, 1138929280, 1163762432, 1427799552, 1731467776, 1375115008, 1899860224, 1119129472, 1919341568, 1888866560, 1168285056, 2085401088, 1075992960, 1363055872, 1685455104, 1317034496, 1467493376, 1925037184, 1466894720, 1336279168, 1487546752, 1643192448, 1346602368, 1081153024, 1604001024, 1304859136, 2090746240, 1288979456, 1231056768, 2013653504, 1875499648, 1185155584, 1311736448, 2122459904, 1845791872, 1507421056, 1887538176, 1934193024, 1670053120, 1694624512, 1983405056, 1124490368, 1454834304, 1825879040, 1195320064, 1266301184, 1481018752, 1508757888, 1244761728, 2106520320, 1092547840, 1989891840, 2125090432, 1213445120]> : tensor<80xi32>
    %cst_65 = arith.constant dense<[38, 38, 37, 37, 38, 38, 37, 37, 38, 37, 38, 36, 38, 38, 38, 37, 38, 38, 38, 37, 38, 37, 37, 37, 38, 38, 36, 38, 37, 37, 38, 38, 39, 38, 37, 37, 38, 38, 38, 38, 38, 38, 38, 37, 38, 37, 38, 37, 38, 38, 39, 39, 39, 39, 39, 38, 39, 39, 38, 38, 39, 39, 40, 39, 39, 38, 40, 40, 40, 39, 40, 40, 39, 40, 39, 41, 40, 40, 40, 39]> : tensor<80xi8>
    %cst_66 = arith.constant dense<[1237117854, 1896922324, 1243447309, 1125211576, 1548659089, 1731748618, 1272952955, 1834821728, 1393057676, 1148953656, 2116884314, 2078247011, 1474747714, 1822446978, 1593974748, 1086996996, 1889071629, 1691479917, 2143052189, 1239037379, 2052298942, 1220528029, 1092739962, 1343345264, 1693154432, 1638958395, 1775256062, 1317560962, 1505119148, 1266206405, 1336721412, 2122845551, 2106990502, 1225277904, 1439949717, 1422533254, 1591881092, 1865447256, 1198317551, 1607297298, 1757580771, 1644547958, 1710720204, 1312297141, 1436738866, 1425471204, 1385667063, 1595983705, 1434248460, 1213220835, 1687649439, 1777420470, 2081193021, 1575359589, 1314740208, 1131806769, 1566330925, 2000025245, 1400598109, 1169425648, 2020389509, 1252655861, 1592505581, 2065594113, 1497287516, 1257918658, 1205830350, 1504032146, 1924597237, 1745440668, 1439779041, 1083510428, 1861170642, 1897686526, 1766003370, 1655687933, 1127010835, 1845328259, 1393156831, 1522510278]> : tensor<80xi32>
    %c50_i8 = arith.constant 50 : i8
    %c1938331585_i32 = arith.constant 1938331585 : i32
    %c11_i8 = arith.constant 11 : i8
    %c1785103811_i32 = arith.constant 1785103811 : i32
    %c10_i8 = arith.constant 10 : i8
    %c1073741824_i32 = arith.constant 1073741824 : i32
    %c6_i32 = arith.constant 6 : i32
    %cst_67 = arith.constant dense<[39, 40, 39, 40, 40, 39, 39, 39, 39, 39, 39, 39, 39, 39, 39, 39]> : tensor<16xi8>
    %cst_68 = arith.constant dense<[1399136514, 1441006493, 1119813729, 1959292139, 2058917253, 1510777815, 1838644863, 1998065287, 1596853815, 1504393850, 1484585706, 1577329505, 1413740491, 1104109149, 1995095866, 1988998978]> : tensor<16xi32>
    %cst_69 = arith.constant dense<[38, 36, 38, 36, 39, 36, 38, 37, 37, 36, 36, 37, 37, 37, 37, 39, 36, 37, 38, 37, 36, 36, 37, 38, 36, 37, 37, 36, 37, 37, 37, 36, 36, 37, 37, 36, 37, 37, 37, 37, 38, 36, 38, 38, 37, 37, 38, 37, 36, 36, 37, 37, 38, 37, 37, 36, 36, 36, 36, 36, 36, 36, 37, 37]> : tensor<64xi8>
    %cst_70 = arith.constant dense<[1098945152, 1208478208, 1104946944, 2118219008, 1142695296, 1667604992, 1706157696, 2061527296, 1729966720, 1244128256, 1491514240, 1857375232, 1674406144, 1973168384, 1427949184, 1339829760, 1092485760, 1506739840, 1598456832, 1678093056, 1484561280, 1539878912, 1628072960, 1632314880, 1982548864, 1878493568, 1741076864, 1128209792, 1864608512, 1502325888, 1749224320, 1177528192, 1086914688, 1708808320, 1471038976, 1846855808, 1338877952, 1601553920, 1519863552, 1923360128, 1158981248, 1491530496, 1965030016, 1683429248, 1782127872, 1301796224, 1460256128, 1313307648, 1588034816, 1282553728, 2000084224, 1841363584, 1575759872, 1846908928, 2089185792, 1510224128, 1104436096, 1200698112, 1415557248, 1226207232, 1780210944, 1144732416, 1339024000, 1542938496]> : tensor<64xi32>
    %cst_71 = arith.constant dense<[38, 37, 37, 38, 37, 37, 37, 39, 38, 37, 39, 38, 37, 37, 38, 36, 37, 38, 38, 38, 38, 38, 37, 36, 39, 37, 38, 37, 38, 38, 38, 38, 39, 37, 39, 38, 38, 38, 38, 37, 37, 37, 38, 37, 38, 37, 37, 38, 38, 39, 39, 38, 38, 40, 40, 37, 39, 39, 38, 38, 38, 39, 38, 38]> : tensor<64xi8>
    %cst_72 = arith.constant dense<[1215709395, 1787390487, 1847999772, 1430990967, 1476746971, 1616542420, 1162932785, 1796004974, 1314994835, 1879935480, 1157141021, 1786654983, 1392402347, 1490772709, 1353074642, 1557526901, 1782434928, 1720882965, 2079467402, 1535822079, 2092544340, 1137520417, 1120693666, 2066405476, 1851758361, 1075117237, 1941488252, 1403671070, 1661086095, 1987286984, 2006235484, 1143300517, 1597379470, 1987279594, 1988577148, 1734002400, 2026908359, 1321122882, 1681766592, 1243376777, 1098744947, 1489801391, 1650633136, 1408276257, 1362685161, 1580636444, 1583070456, 1897580767, 1253712637, 1539486089, 1705923556, 1174107505, 1267689988, 1887026184, 1870627755, 1365268606, 1692478692, 1991047537, 1349587898, 1241198327, 1327793924, 1435383321, 1792699882, 1584776816]> : tensor<64xi32>
    %cst_73 = arith.constant dense<[40, 40, 39, 39, 38, 39, 39, 40, 39, 38, 39, 40, 38, 39, 38, 40]> : tensor<16xi8>
    %cst_74 = arith.constant dense<[1823912262, 2009525273, 1726318538, 1230849408, 1254142739, 1207363979, 1250948138, 1935625109, 1366527647, 1080897545, 1940710194, 1570646698, 1170397723, 1096416619, 1216494916, 1423130972]> : tensor<16xi32>
    %cst_75 = arith.constant dense<[39, 39, 39, 39, 39, 39, 39, 39, 39, 39, 40, 39, 40, 39, 39, 40, 40, 36, 37, 38, 39, 36, 38, 37, 37, 40, 37, 37, 38, 38, 38, 37, 38, 37, 37, 37, 37, 37, 37, 38, 37, 37, 37, 36, 38, 37, 35, 62]> : tensor<48xi8>
    %cst_76 = arith.constant dense<[1672935936, 1459171456, 1670747264, 1458578688, 1441772032, 1719382912, 1553089792, 1855819648, 1967285888, 1548027904, 1553346944, 1316282112, 1892466432, 1320675712, 1128478080, 1890287616, 1765612416, 1221248128, 1355054976, 1584434560, 1461736448, 1393449344, 1089247744, 1212979840, 2081027968, 1826715520, 1309214336, 1429538688, 1931396096, 1239362560, 1898074880, 1334133120, 1150686464, 1837697024, 1786502272, 1715836800, 1347011968, 1923413120, 1463958912, 1974899456, 1908999424, 1235551616, 2061741824, 1285631872, 1734434432, 1602550400, 1740545792, 199752]> : tensor<48xi32>
    %cst_77 = arith.constant dense<[37, 37, 37, 36, 36, 37, 36, 36, 37, 37, 35, 37, 35, 35, 36, 36, 35, 39, 39, 37, 36, 40, 37, 37, 39, 35, 38, 38, 38, 39, 38, 38, 37, 38, 38, 38, 39, 39, 38, 38, 39, 39, 40, 40, 39, 39, 39, 62]> : tensor<48xi8>
    %cst_78 = arith.constant dense<[1534958326, 1663697138, 1551891481, 1217020872, 1123612995, 1583516051, 1308472455, 1103591817, 1596499753, 1354772085, 1141687998, 1860189479, 1209248639, 1269470812, 1495623854, 1967018644, 1496672207, 1275390969, 2114537056, 1833658019, 1328572249, 2087905466, 1708342406, 1337733573, 1961720314, 1248717557, 1974345451, 1825252029, 2114491079, 1906963087, 1287881258, 1333640694, 1241817008, 1161773315, 1538694113, 1750997801, 2002172171, 1406219381, 1506268367, 1087129892, 1365276389, 1600850129, 1722159322, 1687092922, 1744025002, 1650557140, 1609883844, 323921]> : tensor<48xi32>
    %cst_79 = arith.constant dense<[39, 39, 40, 39, 40, 39, 40, 39]> : tensor<8xi8>
    %cst_80 = arith.constant dense<[1308718917, 1698185371, 1929249197, 1205937522, 1960029920, 1771283905, 1975747611, 1183477671]> : tensor<8xi32>
    %cst_81 = arith.constant dense<[37, 35, 37, 36, 36, 37, 37, 37, 62, 37, 62, 35, 37, 37, 35, 38]> : tensor<16xi8>
    %cst_82 = arith.constant dense<[1092635776, 1491145088, 1752513152, 1081371392, 1898408192, 1864630656, 1165762688, 1428539648, 0, 1698944768, 0, 1465019136, 1558556672, 1207623808, 1938488320, 1993927680]> : tensor<16xi32>
    %cst_83 = arith.constant dense<[37, 40, 45, 39, 39, 39, 40, 38, 62, 39, 62, 40, 37, 38, 41, 37]> : tensor<16xi8>
    %cst_84 = arith.constant dense<[1107743020, 1573625918, 1285873886, 2134123434, 1292610952, 1137480749, 1898154059, 1610116501, 0, 1089784875, 0, 1723420058, 1278737459, 1359274976, 1838019827, 1195710853]> : tensor<16xi32>
    %c32_i8 = arith.constant 32 : i8
    %c1073741825_i32 = arith.constant 1073741825 : i32
    %c12_i32 = arith.constant 12 : i32
    %c127_i32 = arith.constant 127 : i32
    %c-15_i32 = arith.constant -15 : i32
    %c-2_i32 = arith.constant -2 : i32
    %c-11_i32 = arith.constant -11 : i32
    %c-9_i32 = arith.constant -9 : i32
    %c-18_i32 = arith.constant -18 : i32
    %c7_i32 = arith.constant 7 : i32
    %c1_i32 = arith.constant 1 : i32
    %c5_i32 = arith.constant 5 : i32
    %c-7_i32 = arith.constant -7 : i32
    %c-22_i32 = arith.constant -22 : i32
    %c-128_i32 = arith.constant -128 : i32
    %c0_i32 = arith.constant 0 : i32
    %c-1_i32 = arith.constant -1 : i32
    %cst_85 = arith.constant dense<"0xD70415D30816FE0CD22EDADF32E9E723E406291324DFF21E0137300513226D1EFCC3ECEEDA15B1E9F6E7EF42BFF719C42128D6EE96EF31D427E50053DB14E9A1D7150D0315253C2CEA09E0BD2CDA2AF8DEE229D5FA2BF2232A0EF30BFD4EE159CB1CD415F5022BDE370F3C7F1B38E2051408ECB0FF244A3E11ECF2B7291FD6FD48CDF001052E06DF21E4ECA525C3FF38EFF8E317CC30A0C519E9FDD328EE43F620EAE62AEB0106F041DC1502EB231BEF20E1D2FBE82B10ED03D5EAFAF6E3AAE2E3441D0E27EA351022F813D23212E836ED031EF24803EB1AE323EDB517EC1F461FE6E0F7ECFDCEDAFC182C32EC21DAE61626D9191CDEF4CDE7F70FD8EEC113B23CFB23FB09FFE038C509C781F4CE30ED0002FE2FFCEBC4D9EF1B1958FBEC25FDBB3525EB01D2F718EEFF104EC32D0FBCF9F12E092DF23239DD2EFE1BCB0DC5F1"> : tensor<2x160xi8>
    %cst_86 = arith.constant dense<"0x7F8B13132AF31ADC16EFF5DC000BED4A1900DBE8E4E21911EC10F40201E50AF112F1CCE4F6DDE622EFE60D19001B23071A2CFC1CED0CCE12FDF5D5000314011A3AF00BF5EE1025FD0F292105E3FD0CF516110FFF012527FD0414FD06EAD7F4E205FC0504F9EA2102F2F93325D007110EF6E7F8D8050BE5290425FB0AEFFAED0D40FB0FFA0312EEEC0309FAEACC3B14C8FD1EB4E4FF071E22F81CE6F9182C0CE8062214F4181C002CFA4257D912161911DE010EEB162B130F0B3A15E902FCF8ECFC16CDBAEADE041DEA20F2033BF8DA25EF39E11FE81528FB0BEBFCFA050BFDF2EBF6D4F5F51639F116F8E0D70BD9FAFAEBFDE7DB17DAC3EF3400EEDDD7F0F4252BA72BF5031AFA0CF303EE001DE0E9E603FF0B0217E5A7DEEFD9DFE10CF943FD0EEBF308D202FE05FD002AFD060100EC07FEFEFA200B01FBFEF21A03E603D707F705130AF2E505DA1A0A010203041DEC1422E8EDFB10EBDAFAF22000F000FD09F3F7090910F10F02F00CED17F317E9FCF1FD09020EECED03F6FF030400FFFA0B8178F5D1E725E127FC1CFAE769F6FE0C262D0D1242F51E2427E32ED0E20115E704E5DBF5F0CCEFF113050E21190DDBD332D4FDD923021C0A26C7E82329D71FFB543936080D16CEF007EBFF03C41AD3ACD4C9BDFFEDF407EA1DEFDA04E806E8FF17C7F61115E5C409F6300FE011ECB9114428C902FDEAF72AEFE646F52202D3FA03ED39C90C3EFE052DF20EF2FC1BD03BECDC321EFBEFF417FE1B4801F9F812F8E4EA0400BC19320E150914E802EA2EE900E3C612F91603DFEEEAAE2AF606DF0B2DDDDF070BEC1214D0141516E9CA30F50CEBD7D70212E105002304F52039030421B9D54ED4D1011EBBC71B110118FA45172E1C1009FD032D3300E413F2D0C8A3C5ECED31E7CC1A0EFD1BF11F050FF0F6F8DD030C1118E018E6F713E71513C81FE7EE2601F6FAF8340BFC0BF5F9320615F0EF1CF2F21EFACE0F0EEE40D726F510E7F81C1E0100FAC8E1FF000805F73007FE09FA2505F2CB1114EA120EF0CE0A150DF419F0FDEE04FBEB23F606EDF0E406EB12EF13E61CF6F6F5EFF0F0FFF81C12A15EC1BED238ECE3FE28ED1554F520DDD1431329F6400AFCD32B12E5022C10F753D32010EFDD20CC27F6D10D45D30C2611FF1131D00D192DDF10CD03E14E261D05E601F5070DF23132DDE4EBE26449DAEB212CE9FE00F8DBDCF404DC3F100812DA0EFC2A06084F1A30C521402B13F4DDFC2DF6EFFC3614DD0DF100E101DCEF351DD01B0DD919F1F01EEF0BC527F52F0DF503F428EE17D0DCE6F0C91F081466FFC9230EE9EC37E9DC03D1F6FFD2EE22E7EA16FBD8C4D114EADBFABCA411E5E5EEEEFFFBF0C7232419EC3BFBE6EEC9FAF31903312251F534B21B151A0E19F91CFC2F33160FF2D31122E02217281A058C0A81130C08DE0517FEEFE70D43271C50E9DD19FB10DBC3D731CEDF0001FE28D7DA0DFEAC2D0BCAC01006FB39EB01123815F5D30D120FD0F8EC1811F52E16E10417DADE1121D013212E0A1716FB15FDE624F2F9FD24F310CF07FB19131AE7EDF21806FAFEFA14EFFCE7F51101EDEF19DB09FEF6DFEDDA1A14FC071BDE1EF7080E2319290319E4C823FE063C031BE808C6019366D211D4062510E80D19CE09ECD722F80B13DEFAFBF310F4FC093B03FA2021121316181628F94EDBF51005EEDEE811F8DD05DF17F104F50010F2290400E0251D02F1381CF21EF80C20EB2F0000FFE01BE9D406090225DC0B0A0AF614C11D290C26C813D0E8EE13E8E8ECF1F11CFBD61DEE4E0BE51E050032F620053AF631FA247F3EE9FF0C0AE3ED24E4080006C8FBD51419FB0A11DCECD9244A15081E1DCE15F219ECEEFEFEDBFBCCE111F90ACCFB02F13B300DD5E72D11F7042002270A2618D8DF11F8FFF8F3FD28E116BC111BE8D410F51108E607DE11FEF21AE7D90DFD2F2E37E3EE01D903F8D04604F3120415FAF420F71451F6DD0AE9F8EFE4071711B4C3F80F0BFFEDE409E613FDEFE5B6CDD13DDBEECEE2F821F117F4E4EBF9DDEB12FE15FAF51414E90C1515F504E5100FEEF5F50119F9F706E9171C1FF40EEF15010E1F0FE721FDF11201E617FCFB0101EBEDDFE80DF3E0EBF20EE302041520F9D8EC16FD17F3FB1CF8E1E2FD0112DDEFF905FA0AFA19030303E8FA1AFEE800077F9537F453F9E40C21F10D4C042286FC01C3FA3728EEFECAFABD3133F746E3BC3C05041D0009C8090FF5F5D4CF42B7E82512F00B11100912CDD51CE905EA0AEC23D72039E6210FD5FD39CE26F3EDCFE9401429C9EC59FC1C1507F51A0B021706F7F41A1135E00C17F617F40212E11F1A131A13010AEEFEFFCC112F05D906DF262518B9FC01FF1DE405FB3709F9060C12E6DFE816080692F6FFDF18F7F80B01D32AB62117172E0001010819060F0217D3EB0726DCE52CECDD18BDF8E800BE22D316EE0FF0AD180AE3F70F21FFEE01FC283E000B12203912E6141A1D1EFF0819EF0C2221FFFE1D22F91606EF17EEE1F8F6C41A1A151D0F040A24F3E71B05D3D5DFF01A17E6F40925084903F0F23D1EFF0C22B6FC56FE08EEED1A090A1718ED0711F6D6DA15F6F6F7FAEEF709EC05F0E0E9F60007030E09EF1204FE07E703020B08FF0FEBF5F5EFFEF3F5231B14E6FCFB0A03E90317E5D0F512EE0B1A01F7F9EAF4F50B03E7E3010CF5F400001BF1010A221B26FEF91BCF2809E8081216F413FDFE8171C3D7EA1317FAF2273731F0E905BA3A250BE407BA0D3EF837CD26011411F502F6B60A31D02B44E125E4F5DF01E9071DF8AECE24CA3905D5081BC3F041F8FFF1DDF7EF291FE2F6F40303E0F6F7EF082603F6EBE8FFDB190FE12EFD35FE04EB1BD54EF7AEEC12FC14E61109051F25F4FFB1EB0F0F400EF31A0BE4C406FBEA11F21D3AB1F915DC2006F6E705F4CE23D004FC5BFFE7DB49032C29290700FADCFFACF71D21DAFD0A11FFF9FE1D0617DA26EFF8ECE3DD19D6E9E6EC40103723B0EDF2F014B8071BFA2A0EEB1AB2C0E008180F1DD80C10BA11FFFEEAF306D70AE2DABC282017CFD12801240BEF1D070322031B1A1A18FEB20E370E10C023C7C8F429E1033EDCCBDEE9EC2D04D2C80F302EDC0A0BF603050F14F529E4183801D9CD40E00807FD1A0BF80D060308F913EDE305EC1FE1FA010CEAEBD91FFE1F00D40DD70706F30EF6EAF50D1711D5F7FCE3EF150CF90B181B1700140FE013FDDEFFE2F1EB01F81AF40F01E006010E0D0F1AD60409F60D14F017272723FE13E4261BF9038175CF09E6131A21D919E420FEBF0DCFFCE7E917ED0E0AB92DC8D5BC13EFEF192C0B07D5F10117D4112DA91BDFF61D29F30E090D060735D1D80D4918D6D5100A321C1804D8FB34FF0DCFDDF4A8EA152B0DF6FD4AD50813B5241922011342EBF23DD621E3140FFCFD0DF239EDF80EFC25EEFA0DF328F50CFDDB20CDE5F6A8CD25FFEF03F6050127F2DE0AEF1C16EBF9FFF3300600E6F4F6D4EB30F7FF03111CF10A0E262AEC1AD626230E25E3F409E0E708DEFFF13B39E1EE10F910221F29C2E630EBB314ECEB1FD9F2EC0DF0E3E0FA1407E13501DD372F2013040F2B0E05DC162D45EFDA02E8E414D3F90DFE0BF21FFE0911EF0CEBE9A3FB0ED61DF029EFDE381A17D0FFC992EFF431C50505EE26171D0C1D1301E5FABEC2FCC3F5FDF2050C02FC192015E5FF13EDE81010F40AEAE510E5EFDFE905F312E2FE26EB01210BFA13FDF3F913EB08FFF9EAFC12E5FB1ADA0D1509F5DF140B11F4EFE125FFF501EF0706FCED2AF10BFE24120C0BE3060407130DDF160DEFDFF905E51A1A130BF3EFFA8173B0BFC9360DDAFA2752F2F04EF4F7DE30BF3E0D1B08FD6033E7C5F2BAEFCDC30A7136ED42E6F6CE330420009FFDFC27ED2191FFCFD8EC16CC2B29FF07EE032309F52BD3F541F6B91AAC3E05CC03FDE7DAB03906370501D2DE1E1104F2FAC0E9E64C020741DB0FCB9122185402F8F1D2051A03FCEAF800F40323F027F656B9AFBC0E4C17F023E53512FAFF2FE424DE1FF9DBD8C93216461B10C0F51E03DA65F3EFF91A01313202E7154709E2E6FA0ACF272F0A164E03EE54B50306FEE3D855C9FD04100316070AF80A1025F20CDF28F3F9FC2603FEF33D4114F6EF060B0F54173E0718FFEB3328110F281BCE2CD3F3EBD6D5F3EF230921CA120A0EE213BE15CF0CD9EFCDE4FE00D5F0F9A467E42C04D1E8FD1F0530FF07402202240E2EFB0F6B1015F147C30B2E0CE60D14ED0D0233C4CFE31820E1FADE25F2FD12FED2DAEA0CFDD622141F0C3B36202814011116D4D42EE14021F0021007F4E3CE01F8E60C130E4400320224EBF01AD208F6F4DEFEE8012009EA132F032BDAF102E80012F8AD48921AE7FE0902C1120BF733EDF1302223E3C8DB280731E6BD14F0202DE6EEB22327FF113ACF2BEB01FE2BEDFB19E9E51AFD0A2FEF27291E21FC1F30090E20FDF1DE55F42800E4D660EADE05E42D54FD1A07F9F1E640EF1632DD3A34F632E613E0B9172C02D3FDD11350F5F21B4A17F226E920F3D9E60720DFF8FE0DEDF7BE0E131410E527B3F5CB13E3DCDD0641F1EF1408E23C271CDAC32BBB25FF1EC9FE1D43DAD22D08FEEEBF0006F8090B32D7B0D6061D17180EF618F20004F91F01D01817C91C371313F8140CE06F14ECE7E72B5B3AF7EDC53BC53999F9F4BCEA15FA81F81F17EA0615EAD7F5FDE0D0B423C612FA27FCFE07FF04E75BF022090A3100D7279F261C24DAC32CBF1B1916BF1AFCE72DDAE60BDCD5FE09F0048EFE0A270A12240CE12223ED0827F81DEAD4F50F041FF9FB0710CCF01DE5EAF60ECBFB0101F4FB0FE50825F7F836E9F7FCF0DBF6F8F5E70E08252C0BECF0C20ED22708041E1D0F2808EA02ED13F3E910F212FB01FCD8D7DA0CE5F704E5FE0EE927EAFA31077882690323EC0BC513EED7590DCAB4D4F4D3EA2FFCEFDE31ECE30B1AD1A8C9D8F90669D0C0FE0ABE16F8CCFECF26BDB709EF90F62340BFB1BE1DD03018112200D813FE292BA002D625F8171AD65FE41C34DCF0FC07C56F0DA8013EC5F51D1103E43834FBC41F4F23D208DC0617D518CC581CCC0F16BD0838964E1DF11FEFDF270C1803F51F020F12BE09E6EDA0D4BDF220D82B0535EA0AF64AFFCA9B52EEDE391B2342BCEA21BC3239B72B3FE3352F2FF7BC1C0EF69D3F4C0303D8140DC6AC010E011E1D05E9E52096DAFBA17FFBE9EEFFE5134517F6EB37F60CF61201134007A91788FAEFE401493353E610FC5FB8D0DD11C915B9E0C4C2440C2C5BD7F86C1B24F1F24BFDFE42EB2D0ACE2BE42603F20EDE07D1DC11270C0B03A4C5DDFDE93C06EA0F3CF1E7291BDB21C0000EEFD916F9F809E8D752EBCA1611E9EB05F314F4C8DCE9FE01F4DE1C2EEF140F090B12E5D9F8241DF30AEA0CF810C6ED1719F90308F50DD52EF2F40516D31534E604440EF2FD1F441221CADD0BF9DCE5F9E8D826A54594E5E6600352BC1D1BFEE5052BFC240D18421B060525432663172B03DB4145525B0F22F6E0D3F1D3F3F407D121E12003F80AD0F21703201E0310C416B81D1B3132D3DC17CE2F03510E032522F60DD1E54122ECFE2DF2EAFB140D42FC497534E0E8FC01F10CFDD94CF712D80B12EE3BDA10CDBCF389E60A36D2E4DBBEDAF4F318100F2615390221E6BAEEFE12E310A00DE205F9F4022FFCDF223B3DEB08D2131E8DFD39B81A7FED0FF2E4EB17E211C252D818EE0EC4C913CB67D9F8F70AEF3FF3F6323203E5EA3B02C9130AC407E4F73302F953E409F134371824FD1E18E8DE33F23D2AF430F514FF3D06E5BB04CE09F3FA0138FB33056826EBCE2CB20B1ED90EE2F7D0190CEBD31539BED1F401EBB6F1E04924120EDCD3D6D2FBED17E2FBF8BF120A0F0D03F61D030FEBF50D26FBF7F117E503F816FD12E0F5F0EC20DEF91A01FCE2271E15EB0E0BF6CC28170A0D07FBE7DCFE19F7F5FA02ECCC03E6FA1BEC1AF9FFEEE4EF2E0101F6EEF91803F6EE00FDE6EA0000FE06EB05150C0203EF815DBC38C3F61903351F1E041915F627C31F1E2EF9B807D217263F1D05E5E70006C61CF6D3F7EB18F90B2114051E26FC35F3D00897F514CB0513F22EC978F0F6F70FD33EE6EF1819F9DC19FEE82260EEFAB8DDF016130D33F7F313FAE8F9EBCE080CFB21D4CEFBF908E5BC2B14FC3201400F3AEF35F708372CCAE815FE0305021524FB12E1E926EADDCADE2CDDDD01F5D53124F1EEFAD301FE01140517E9121600F0E824E23216F815F71638FDF112D124E8F513F5FBDDB10FC5F02D0A33C1DAD1324704F22B50013B03F62FC4E102AFFEE0180FD00DD5E8F2FB3B24D7084F0BF3C20C12DF312BE900D408B71AE23EE908F52E4E01DFF6FA48DD45DC0C10401C0F0703F3F430EFDCEB0BE0F8DEC8353A2FFADEAAE01702EEC0F2C02B411AF435F64117F8F628EF1F0F0F04F1EFEE0F09F3EC02EBE006F60F0801FCEDF7CF140608FB04F0061112ED15FB02DF000BFDD0FBCE02FAF3F7031BFB181EEB1115FDFB0DF4060D01FE0D06FDEB09F505DA17F1EB0707F0F7E7FED5110C0606EBE7F1F379952C28341AECE5ECE6D70DFB10091AE1F70CD928B0EFD5A904091C0B0EF53F0800DD0DF5BDD2B1D8143A15F01DE2FF2415E40BDDD9F7C9C9E9DD192EE2231BD7004319EB2AED1319E5DA27040A06003F050B13AF22E9B9FE00EB39F6B810E2F8E01EB8F0FF360E16D9FE0EEBFD6804FF6D1030F22ED703FEF500E00D0614D303CEC827F6C83BD93604E9DA14CA7F4D293419DBE4E6054010EA3BC1150027252612E5DDE3E9EF331AE912CF142D00ED49D706D814E817142C16B0BAE9F90707B0E7331EE037F03C18DCE9C8DBF25A1E3212E106F70DDC00C1BB0A1217AB12DFCAEE1F0CED21EBF3270A16EAD41A0726B925A2DBE3FEF0FC2A04F9E4CECAF601B822103A10EAEDFBFBF8130BC3F1AFD9003611C6EFF53BC8270A102BF44660FF22FBF6DF0CD7E3FBC90A16ED0F1CD3E6F4D4F311F90C25141F070BE8112104E6051C0107C3DA011DD0D0EF12E01A270BF221F11CFEF5010FEEFEE1001C1FEFEA00E808FBE8E1E70031CEFAFD1ADB06FCFF1A07022408EF19EAFD1F0417FDF3287F9B42051F182C00DFE1B7FE0B272D03DCE7F219F32E270D262DB9010B10E268D00BD24115D8FDECF1011B0D0240E72747AE20D5E6C7473714E71E5FD8B70410262BDE0D102B3801ED06E20513DF0FC71718F106FBB9F7DB7F52E6B30315211914F4E64BCED2C3BD4F3937E8FEC25EE016CE05FDEA41CB2F0722ECD619131FEDDFF5E0FC30CD390AF6D628CADD0F1ADCEC0700CC0107E61808DED60DD8C4D6E91F523EDCED2B160E10EB3D211405C129761C3A2BC708D3064B1C01070BAA05F2360106EB03EDF417FC2DF608E7D8DA8B170C27CBDA0005BB0EDD08BEF4382531EF0AE7D6C73FCD06EC282508D7200FE01CEB10BB14EBF2F00F18FEF43C42F8EAF3F7F7E038223DD615E921E4E1F7130445E8E2D112E7D9F8F0EF112E07A8F5150906E1D2EA20EF1D07D317FC25ED1FDDE4170130F910F91314ED04ECD9D9F337111C2B0FEDFEFA021037F30A21FBCD04DDF3D31B02EB060EDC09F804F3070F06030B0B03FC05F6D500EEDA0FDADBD01DE1F32CF818F250030EF320F606F9F7EC7F9330D73DD03DE81CF730222040CD121CE61A4B150AF5E4E803C12014F523D88E1EE1F515F502F5E4D21A20E40ED609164CEDC4E2DA010B16DFE623E7031C03F51609E99641F047F9C932EF0000D329E514FB0ADEE5E2CC1612FF06ECE30930C746F20E0D060ACAFE0B07FAD92AF7D02EFA3D0BF9011E0E0C0C32F5A0081C15FB060ECF04EF310DC6C1041AFA1625FAE3F8F80B15D30CF70CF7F52CF50FBDFC08001D07DC02121AEFD7FB3A5317DE1A0760E6140DD7EFF7F5FBF2121DDF410FF51F000C3AF10D091AF6EB36CCBBC724F01FE135EA7F14EFC9E6FA36A0F2E4141A20F8FC3FE8E9D7E702CFDC2BF7F6D6F2E0E6CA18FF24F6D7F41FEBF52A24A70F06F70DF41AE5E702C11A1A0BF2D00C1CFDEEE6F40E1112ECFD01D6D9E601F1EAFBDB16ECE5F8F105F213F1F30BF00708E512001511FD06280923EE110306061022D80A0A13F7E2E0EDEC1825EDF0F4E504D8D7E8EEE50C300FE21817FA251A12021AFAFCF3140D04191D02CDE4FCC2F2F50A231402ED07F8F419ED01F2F0F48F68C3E9DDFCBB27FD2E1FDC06D31D16D338271A180805E7E80E1AF5F731E4DD0A2602CA13E6010767E8051202051A9A32EDFF01CC270610FECE07C7D0F2189F04293D43F3D9F11423EEFD04FB05D605FAEDEF12D8D8E2DDF51F19FEE02B1BC9AD161A2F25F1E82219161FE6DB18DFBEEDA9FB1D3BFAE2D520050CD70507E11C0FFEAA1F562F83E5FA1BFFFC0E09FEE44CFC27FC03E8FA0037D501DE13EE0C32160FEFFDE9C7F7FE0B0623C3F10F002621E7250AE541182ED204F807D0FD9811AB18BB42FFFAD7F4E60833FADF030F1840F3037F1DEDFB0AC93FF8EC05E025F800EBFCE60F0300CEFFFE1338E4FF1B1EE50BE9FDF6F3F626FBD2C91717FF3414FEFA00150321E4E1EED71C0F1AE61F21C8D61EF9DF251A400201F9032F1908D205BA14E80DECD201FEF2E50315FEE320D1D6FF45F1FBEAF80D3301F209340CF71FEF0DF5DC0C003CD41D211BF2CB0C300A0BEA20E50DFF15F700DCFE0220F3E11701000FF80732F31FFB091C280ECD26FC292C2FF7221D0D18F91CFC0D02DDED9A6BED87CFF8710D2818DCE0E3B2F23DFB1916382F27BF362213CA351350EAFB2EC22922E6270828BB1FFE23EB01021CB2E3F61035D9ADF6B8D1F3334B47DDEB01D8C61802E9C90FA8FDFDDCFF22F1E95BD73A192C2BFA084BD34C591000D8EBFC1E1F40EBD0D70411250E8FA1E5141CB01027C8A6531DFD045A11E2DCE5E9740505E91BE4E1CDFBEA0606BAF898E4E5CCE7F0FB1707CDBC451804031D06CB19520134FB19F31AD3ECEFE621E006E4EAF1F2D5DBE6D83115DAE8DADC401BF6C611390005131B39242D08010E15C1FBF0B2F6FAE8FE1DF608F22066F207EA54F801360EF3BB1335C9B2B425EC2DFA27EA10ECF5044545290DEEEA16CFF509CA000A0C26E414E1F35ECE00E0FED9140AFAF5081DF111F203C6F20E1CD8EF0500AE7FC314EEE939E9FDF3E10000E703100F07E6151D2517EF0F02D02BF5DF130AFB1CF9FEF0E231DFE3F0F70E0DCCD8EA1822DD12EF0B2B3B1315B70A14F0FC2F2CFB3527192EFD23D7E4E2EAEF3EE3CE12E7F7FB02F3191407DBFEFD1A05FEF5CD7C8D29522D7FFD1613EE0331F206139DF404E315F7D715E858D7D3B3BBEEF638E3AFE33EEAEFDF32E8F4F9FCD3091229FA53E5F5DBC7102A151812F920D60EC4251807D3E9ECE91BE1D8181326FC190DE9C848E9F10EF41AFF09C5C83EEE06A38D2627E32EA437E4F25128FD050BF6CFF908341FDEEFD410EC0B131BFF24265EFADBBC2307D529EEE02B14FDF3EBFB1EFAF92545F5EB270926D9D1022CE9061FCFA5F48C26DCDAF70F34180CBE01E928FFCD1218FD11EC04EC07D10015BDA9404CE728E3AA2A210CF900E4DB020FF92826E2E73DEDFC3CB9162507F91BFDD3E4FECB0BFE26DC4C2CF50C150FFEF70EE4FD4CEA92F12FE716CEF90EE32DE7030D05CCE1DA2C3B1FF5F432E2F208DDDAC8143DC6DFFDE908DE28000BE8D7F9F9F5F7DDFA0BEAE2E805ECEEFEDD2718FD020A10F7DA25220AD8F4F0010BF505D31CF2060905F1F40CF3030208F11209FF320828ED08BCF21EE61F0F0FEFEBF403F0F60300DAE70816F811310D0D180FFA0209320FFC10190FF5F81CEBFE1FF8F72E8175E0ACE1F8E7CE0821F368F405FCEC0700EC0124C30AFBD6FCF10700F9130E041E3122D92ECEC53D44B3C609DC2634D6EB091630F2EEF2E5B0B00D0600511FFB381D3C320E01DC11072330C80216E8B8C5D9F31003C8EA1AFA12CD18D6BE23FCB1F2DD011464CB43FC21E0E71AF81023ECFBF9E01352CF5AD2F3AE42EBF8FDEA67EEF30EE11535CA292AD715FF213C33E83BE368414A0D1BE8F31305D010CC07E3D5F2E4E9154E413050F6D9D60D08020E14DFCB1930CF19DBABD904CF01280020FCCAB222EE15F3A416DF20BF3C51EFFA18FE04591F19E11F1138FC0E09EFFABA12F3FED71CDD20381B0E29443E0810133230FCFCEEEF120AEE390F0033F2CFE3CBCEE306E41109280CDB2AE50A1EE536FE08FF130C03E6E5F20516FDB7F6060020F3FD35CEE508230723FD2BDD24F0FDFE231FFB421BE9F40508EEFDC00DD4160711F81ADB0227FA0AECFDE92CFCE8CE1203DAF4F714F6EBEEF725DF1117FB28F00FF5FAF3E704F7F8F820FE25030201F1F4F40A16332C050FFAFCDA07D88172D50BD2F10904101B300904CA0FEBCA07011801F4ECF3061CD154FD14FDFD0A03CCD0FFF1F2170DF6E5D7E00F40F5E7F305CD170A11F5FECDD8E9FBE3FC03DE1813DBDDC8ECB9ED2FFB05D10DE8FFFCE9DB20F5D3F4DC021A141DFAE6EAFD12FF2B12DDFF03D92A06EE0D1CEC0AC5F94ED615D4172909D201EDF303FC08E12404C5CEF7FBF72702F31FFE05EDE9FC08FBFC0DDAEAF2F305C9001322D60E23D0E2192501BDF4E2D70B330705FB0C02FEC015F104CEF805F82415D6E114F3E1170D0711230EE0D5F7E4DE0CED31FE15FCE11FC8F1E43BECEA07122E21E50717FF3BF322F009F9000AE8ECF1ED0AE9421D16F40BE40105F1080DFA0706FC1CFCFDD9D806FC32D9F70D262FB91C04F119F7E3EAFD0EDEF52BCDE50BE52E2AE923011010FD0D2C19FF08EEF41E0EF9F7F6F5E103EEF6FEF4F5D9F603EEF109F6E8F2E321072CE31E07092F2BE4F0EED810E5F20AE6E4380C1EF8FF08F819EB1111DA150BF22319F4F1EAFD11DCD5211E27EB3313FCEDEF091C03EFD60914FF02F49E5BAEF8E4D614EFFD2B0A430DA6ECC40BD043F83FBC33EA55D41AF1ED1BF1C3F1E6FFC72051ECDF0C09FB0FEDEEFEF00A0DE1EEF112EEFE420B23253F1AF300121722DD1DF93A0D06F2B86B1C3000F4F83217010DF9DC1702C526FCD9623442C6E5F465E3052DE808D9151105EAEC182045DDE8EA3DF70A1A9DF00E25F4182B09061001FDE50901FF074E810115E60354C11FF9DA02F7FEDCFFDADB08FCE126241C01EBFDDD3AFA0DE3021412E9DB3017E1ED18DFF0BEBEFB273221BFFBC335FCF509D0D0E80D22E0F9E2CDE1062B3715CACECBBEFEBC37F81F1FDC07AE0BE71520FBF01CC005B509422214F0FFF638EFDA00EDD8BE1E1FEAD21AF114FB0FE1051449FFDA0AC921E41BED0FF4FCC224F2CCEBFA2D0607ED141ACC1DCEEEE92206B207E01103E5D8ED1F0C0BEA1A0EE7FD010000FAEAF0F61D0B1F0C20F207F6FFDB10F116191A12F50712EBE610EDEC1120070AEF091815DAECFBCA1B101CE711F7080FFD120D11EBF0140C0636012BE8192E0EE7121C0AE4F80613F310D1185CB343DC3805362001DA0BD8063A0EFADFF23022E233F90921C1131207281C18F44FDCD4CF30F43BF0D2F8EBE50BECD71D3DC4FD15141B4EFA06F2E819171921F310C0E236F626292F0B52EAD8E6E9C5BE07FBD0E5021E04F91C60D818FEE7DF2E3EE9EC150F1D0F40EEFD0F3E0D06E7E3F1D8E9A408DEEE01FCF2FCC4DB1C02FDF018170C00EC20DE2A9628B6C017E6D21FE9F7FEBBFE96B50206DF032613CE04CAF617210C13B71D0703CFF011F9DB1503E4043ADFE91BED06F5370CE90BD31487DBE2FB24D321290BE5FB020F03F7F0150AC4CD060A160CF4E6DB042712E3EDF2FFF6D50EF0D0EDD90B3A100E2DF5DDE818C9050BF5DD02F3EBE205F925FD34EDCEE8F127CD3503FA2401E619072D250BFEF1E9F114ED13F0B2FD05DCF8097F10E406281007F6FAF0ECF4210F0D020920FAFDECEC170B0101F7F4FDFA06DDF7010BFB0AF8FFF501E5E8EE0505E625030FFC25F8E1ECF40C2CFF0F0D07F2E50808F102ECEB18F4D7FDEDF429F5FAFBF7FD02E81725F106FF0706180B0727EE7F8C4A1C260F023B16D44DE7AB08ED2C26B824D5230FEE0F272E21E028E8221D3AE62DBC2725D529F31B284A5727F3082313305C22F307EBBDD402E520B21107EFCFEE3B22FFEE2BD9BE34CD3DFCF120FF40ED0EE91A0B32F1C82354094905F40D130BD3D3061FB9ECF62D3BCC1AD4DFEE2B06DAE212B3120303FDE428F73CE705DD0DF6EF1BFAEBDAF2CED2A036EBD3E9B41ECCE20B27F80FF10908E5DFEF26C849F3ECFE39DE0CF7020F2E4810B5C744F914250114330112CC090B350A15D5D12FE80CD5C9EDC72442A45B2DE21BF6FF2A13F3C31C37A43029FD13E32DDDE90ED66830E01DC9EB39D09D4EE556252FFFCC22F9C5240AEE17B5A7CDDC00210BFB2035F3205D0801E9DA09CC22D306B11A38E4D811F50704FEE1E1F2E8ECE9191308D0DE2B21FFEAE1F50B2AFE0F08D900172DFB0C281B01EC000E1202E6E5E412D3F01C080B1AE31C15FF1ACEEADA0103ECF1090018E7FF23EBF52BDB0DEF0005EB0EEC1BE5F30306131EE50107F63D2205090208FEFDB702EBE7E1FBEBF416816BBECBD525F81FEB33160317DA1D111DD109F8C7E5DBC4CBF904EDD0D41B3626FDF4FDCC05BE1B26BB32EBDA14EF6CD153EAEF20E109D9E6FAEEF3EE251E02DBECFB36E2F6EAEA19BEDE2DE13103081F11273101DC32D8D1F6E9DCFC29FBF8DC16E128E80204150FD0E2BC2E183B7AE02230E3BFF32DE4D31205EA21E005EDDC1BDB100314CFFDE3DD01F836EA25D529C6FBE51C262E1FF924FCD500D40512CD19DC0C2507A8F2E4EA081D401E080BDF00ED00FD1411D1D31DE5EAF8082E1331EFEBDED7F42CB4CF0808F9F3FDC71BECE2B4C9E522C109E20DD9FB051855200FEDC221FA240E03010138F60008F3090BFEFDFEE63F014000F8B4E72DE2D5C9E410D4FDF7ECFBB9C5DFEDCEFF05E820F9DEF703E7FE1B1BE02317394506ABD2F41814F4FEFAEAE6F7380BF504130C1AF8082EFBF0E6FBF70403FE36FA1BFD1C0A0D0DC8EEEBEE28FB0EF50AF41AE5F2FEF125EFFCDFF80B09FCF5DDDCFF06F1F1E3F70D1320E515FE14EEEA032D05051A0DFB0AE90D07EE0F1AFA20060AD9078D69C7FED3112D06F7194A13EF03E11B04021BE6F1F212DB0AED0E5CCFEDD52713F0FC16F2FFF710E70FC9FF2BD5DEF71FEE2716F1EFF5494A23E735030E08E813F4CFF9201CCF0511E3F70B03E03B30E4EE05D415E626E12EE7FB122F3A07C9F0F2F4111602D30A07FAB820CE0FB8F7B3EFDDFDCF1D1FFFC40304D8E8D4FF09F1FAC4B6EF2023F22FEC1910FDDFE5273106ED172C0F14F4F138F11B2FF0F5E01F17F4E5D82F11150E183206DF22E4044BF41C1E0AFCF2EDFE1E40BE15221F30F20712F4E10B0AE1FAFD0E0C030C1802EE27ECD7D2D7D0D70C08FF4D3532011CDC052DD21FC6FDF33DC60ED9E3E1DE21F722F31F14D0FB03E2D9027F04FEC60C13E4F5FFD8F61305DE01D00005C11431D1020712FE0920F0E102FFF8F61320DE0D1C05FA2120EF1E080EFF0D100DF012ED01EF28F2040CE00F0FE9FEE2FCFEF9EDEA0B0AF70705110903F3E8EFFF0022F100EB06D90F0BFE09060FEF1B02EC151A0C130CF1FE050FF0FF070EF70B180F02F80AFFFB1602FF0DFCFB11090702DD7B8F24ED300CC0DD56E610191106D9D6D10CE6CC0B0607181718C6EC210FC900FBE1C53D13EFFCE92C202EE7F316EBD0AE1D23BC2E2A05EB0AD0E80C0B470E1FFD2F05320D192B4D10F0FEF23061F70B21D00A180A39FC01E72614E51216FCCFD8F00BD8ECF705EF19F731E4FAFADCE0E8DAB1CE15E726FBE916C7C8F5051DC429F5C3FC350D2A06F9FA159DC709FE4C0CEFF4FF00FFD60F075C260B1CA50CD0E90AD6E4DCFF05B708E7CEDB15ED4D0BF7B01D21D6EE2FBEE0123C02E71BBA3311E63B28F11801FE21FE31EAC9FC0109D7E021CAE12BCEEBD5211D30DC3AEB080CF6F5F0EEFC442EE90E1D2633DDF3D705FDED0BFFD90A35F7F91410C006B9D1150611E60E21F410EC0ECCFCFD63A5EB04F3183981F21714105EE800160DFBF40206FAFC15E1D8EDDEE804070CF6ECE0E70B0F1DFE0527E72701C0CC03FF081D06EFE309ECED27FAFE2E0500D512EA0AF12CE8220F01FDDD06F1EDFCFDFBF9242A15D90314F70104FBF12C1702FFE409400619070901010FF60AF7E4240AFC0365A21F25242CC80617D879E6C7DA12EA33D10DCF13FB07142F20C7FDFCD7D5D52DF754230C1AC9191EFD10F8F3180BDF03D4FFD1E619F6F9E523022C202BDEEECA070921ECF020000FEC0A34DAC4F1CB1DF4F8E13503CE17925100C7D9D4020A30FF240564E7D5211AEFE8CEE2F9111EF0E60FE6060C35B80F1213D80903C2DED4E6D80AF1CA1F1CF45111FED641F9CE1FE33D5FCEC7FF22F5F204E92631FAE4F31B04FAF11209FACDAC18EB1DE616E94F1FE6ADE4ECFF13CD1EE3A40530E80304F017D0E4F2230E270BCCCDA11BF4CF33E306E41928DE1D141912108119DE2B17171730F80351FF200206FDD01FF4FBF6FBDC29061FF3EEE22CD61E15E546CB38B3FE1BFCFEC81C1F01A4FEEEFCFC0FDB0932B52E141DF0F9011DF414EC0DD9E4FAD631D8F6FAE9DEED0E0A010AF2DE12FEED110B11DB0337F0F2CDEC1E01F3F217D50711E51009190FF9EDCC2101041CF6E727F722FCF7FDEE0E2B03DE07130D060DFB19D1EC040821F82EF5EC1ED30401243D04E41D0AE2F3FBFF1EFBFFF08174D70FD303F0CDD917EFD5F10BC10CFCF1E527B8F81EE8FE033E32E713E615DEF51F01130936E923ED2922EE0F30DFECE2DE2BF343E0E9D1CD0D0C28E1EA531C020EF53EE51E1741BC021FFB2D06E549D503F8FCC00C05060C24E5FFCEEDF40DD868351C030DDCD8E42D2BEE1FE9E84AFD1AEF17E202E203D6E80B11F71116F524CAD71AF70D47FF34303AF11C14F5F8E131E215E510160DE8BC1D4E21FF320C1CDBD4141A3FF227E2DBDF041327DFEE2CD3140F2CEE120C0008F6E8FF27F2170E1500FC03E23C29F6E7DAFA36F1EACCC7C4FE3E042D08F61505101947090B1AFA0EF0D9E0F9E8EAD81221FAE60F541B0AF32BE02BFF2D04F02804CFF0F0081431E9FE18D2F408EEEC27E9270B29FB021E05EAECFEDAFE09FB072A1DE5FB0FECCF140CE4F2E503F8FDEC080108FA0518F10F0321F1D8D8F40AFF1A0D212413EA001D0D0D1126FD120FF712EE09F321F6F91204D210FDFAF4F3FFF318F0FF09190D0B0CF91D2803FF0E0207060006F404130EFFFBF9041EEF0800F5E80DFEFCA862B3CAD42EF4302F210805F6F206011D0715EC0617131BE018EEE815DC23F3EAC31709EC9F130B110DE1B9BCE11AE619E2D44B09FDEFD233E904FE5901F31AD70E2CE2F21109F2F5F3E11139CBEF02D4E51624B2DBCEF0E0B6BDE50A000CE9CDEF1122E306FF3365D1B5F6072023EBE71B9BC3FB220A10D4001AFBE428EEC215029404BFFE03E710EBC3E2B3DEA7E21805FB133F1FEB194EEB18E0FAD0EB27EB01D81043230E352320F926E31509F5EAD207FDDC9FF7F828FFF5D80B53CE1DEF0EE504F9011FF4371224F9043811F5E8E42EFFE4E6002F2CD50014D506E8CD62E7FDFDD6C71115CE20D5220F160E15181FEFD34708FA27D4F7E7240319F6D3DF053B0ACECF1420DDC61A1CC7F7E62C07DBF400290B03DD3FE4CF3820F71AF78199261A0216FBFEF1E6FD11FD0522DF1514FE20F4C53BF51A03FC0BEA141DF403EA19F90914FDFC010FF2DC001D0117DEF1FDFEF20607FFDDF91DE6EADC0FF4EBEDFDFE08EE0519001DE2EB531F1306F200D226ED14DBF8E9EC09E811EDF3F68173A543CCFD35E6061F53CE11DB1C0823EC2F243A43E7E22A12E6B30EC2E818E124FC21F5FC1DCCD64337ECF8EB1A06ED0A04FE2E1705C8B5B49A1C0E29F5D4E7FBF44917F535D720134433272F2C16E8FE3EA522B52B1BFAEDF6E70E4DEA17EDE934FBEBEED5F3D508CAF48B65360D02EDB733B6350827D52929D620AD43E2F72FE32037F7058C342927F124B3CC1844EDEF06AC03DFEC02D7191413EA16F5D8CB0918E6170416E5400FE5EEEFE4B3F03ED22D264012EBF2CF0506410107220AAFD70FE7E3E81AD8C104C93B7E1E1411280F2800223D5FCAE328E22AFC3615D8D405BA3FE7E228EB30C4FD1AF4F6DEEB38F8374A1EC8FBDCDB14EE21ED01BD18241B52FC00D13EF40619E83043EE2AE5220BEF121EEC118E01313720821F4AAAF2F611F9D7D8DFC3F717FBE11FDDFA0B55061801200615134F1B1EFEC20ABBE818D257012412D82E2DD4FDD0EBFFE30F1AE2F9EAB831FE08F7210211FDDF300EF5F51516373ADFF818F3E32BFB2FFF2CD924DCFB3CF208062839B3EF02E6D733AF4A33FF2ED52362D2382BDE0C15BDC3CAEDA90E091CE010FCB4CFE9FEC2FBE00EEF2D8B1821D32AF3151EEB07E2D0DCA2F6C33037E203CA0AC0BFFB2E0FEBC9EB340C131713FB29B8040B1DEFE52CEE1512CC0BD4C60CD3E11EBC16D2CCF4C11BDEFEDFF10B1A08C5F5C41C27E21E1D57BB351BC40107F51315EA560C162AE834C4D3210121CB1B103F0C17F4DD3211F53B0EDAE9FB303DDAE2E83DCE4EF7CE1BC308E7BBD42062F01D13F8343ED926E1E50BF41F262D8112E50B06E3F1D4EA0C2C4AE3F92501E9D5FEE9021928FD54F20616F60CE51EE61813F50CDCE7E83721FB1CC8052D05292D0DE9D114B22634240113E4AD25EBE6093DFF23DFD40811D003EED5C7301AE40DC7D50B15EFF403D7203829F61D3852EBFF2915322124149EE71FF7DEEB03DCCFF90C1F16F9F5E4F6FA02E81417E5112BFF0603EA2ADF1015F5FAF5FEFE24EC2724FAEA15F9F4121EF3F5F1E5FD20E60D16F4F712E0F5F3EDDF01F02A02FEE9081A07FD160B2D1E170B1B1331FD0608F726D20811F8F1827FDEE1BB5ADD3AE1163F1D27C612F5DC2D2910F6E52001C718EA31FA26FEF3EBF5CDE8C6E708F137FDDFFAE2143FF4C3DC29C31FE1F5C3232811B105EA1406F0272AEF24F8DF07F3ECD8C212D8FBF9E40DF002FF2AE607DD0C07F0DAF6FEE5DD1435182FF65213FDFB3B35251A3432FB1F0F26EEE72D36FFC82C2C1FA3FE05F0F7EC14F016FFE8201A2CDEE0CF2211AEAF4505081B0026EBE602D801FAD812030B04F432B7F607222408F603FAFE1BF82A0EFF1EF720DB25F205021CEA02F302410BF31BE8FA16021D37300A051DD9B508FFF9FD0BE10AD93B1F182100F70B42EBE416370BE6F017D249051BF1F302E0B33E4001ECDBF4EF2CBF4CF4D31A055A030F420DDC12DCCCF6F9F8FF01F0E603011B02F3FD1CF1E3FB10259AE40F08EC0319F014EA16F40D00E3090EF7081CDCF70BF8D6F0F8F207FBEB17F501F5EAFFF31AE300F3D7EF14F90900FEF206E2FAEF120DEFEC1106EA1AF207FC0029FAFC0E0EF20609FB11E5EA1CF30301F4FDF91101FCF601092EF8F51BE4050618EA7F8A32F4363BF4EC15E6082204100ADE2CFEF21DFC12EB05F3F747FCD6FFEFDF2BD8EF16F5EAEA02071FD5F7FC2EF3D1E003F70B1D16E60D0BE8DB2EF3F04B2BD5F72E10FA400AD82814EDEFE00524EB212AD0C04FF2C9F009C7E0280DD5E119F91B1515FEE0FAD425EFFEC229FBF4E524D4DFE7280A1EEC08F3EF27F0EA13D30D1D2AFCF639FAD3F204FE340D021FF500F1E21BE5DF1DE02D191517C92C103D0CF814D408E1141B23EFCB050000F5091BC408CD15F802F91109FA052F0F30FE08F1323223E4DEE1DFE81050FCF326D7FAB30D12EED6FBC11D1809C1DE44C1F1F5FFF92B32FB15D021FC2325E00D0DC4E3310BA3131BC3EE2DCB191B61E32409421EFFFDDD1CF7E2E50900D6D714E5130BEB32F918C935CAFCFA040AEE1205FD1AEDFFF8F6EE1D14EE13FA01F5FEEAF9F106120F06061CE3FDF81B04FEEC04EB0E02DFF910F90B14EDF2FA0EEE0A06E6F40C05F6F110FA230FF2F5F4082BF2FED4D6F5E7ECFEEDF613EE01E0FD1C101703D6EB0A0AF90DE1F11ADEF5FF05F4105A9A79080AF6190BBBD426FEF7060B4B2F2E1E3BCFC62AF9F5AD12073904C2FA0D2D050BF7E6B52AFB1B391400FFFE140C0026EDF51D04F8360E1E3D16FDF42ED5BEE8FF2BFA14C8083658F61AF5AA4016FBF348F9D32EE618EAEDE6EE11B4ECE8D6E7471FFF1414FD350FEC0AE3D1BEFBEF1A0CD4FE0100F1F5D9DB24251A0DF2FA5349EA01DDB42A0C00EEEF01161AF8FAECF607FB37F2D8060717FFE922F6FBC3F71B2735F609AF25C9ED222BE9471BDD00121605E0171609351D4EF415CE34D427BB0108F9F0E17BEE34F9F6E2C2C429E220EBF2FAF317D52507FCFA160A06F808F410FAF1FEEDD6D3B508380E1E1305060E2FCB074F35F1E2BC1F090A28F715D3B8EB1CE5F4FD81F30DF5FA3BBD193FFCEDE6F0D2E3FDF9B2A6CF1F27F9EE5513040A0AEB120E1C1AC80D05F8D81513E9F402BFE926F71600F8170205F5280910DD11FE0CF101F6FCF936EEE40404F409F021FEF43E19CDEB0ADB171208F7F6ED16FF02EF1011FC0BED17FB07F4D508F3E515CBFEEA04110AE3F40A1209816CC734D508152B0919F6DEE9E9F7101D04080F143A01F4E4051B9EE4171404CC38BFEABBFACA082FC1F111F702FD3EEC0BDBF8F0E5FE083715E61E1FDCF70B0ADEF6E8F00A0FC7EF360D01BF33F717F10ED8111D22EFF521E217F8151408FE183A20ED2211E708E007F20CDB3116E5FAF60AD70A241D0AE416F8D2DAF6E80B130C122402112E2DFB02F21CE6FD2CED0E0108EBEF181306D724F2DEDDF9FE1502D9E7EF15F010021DF6C5E1FF01F302102615F81B02CD0A11D8CBE5F6FB00F3D70203EDF00015F4FB0C020CCDF2BCFCFEF3B9002DE2E528D5DC1D3F0206CE12E8396AECFA0F22EDE1EA1ED4FB02DF04E8E9620A0AF834E5F611F8E601FD0A010E151440273B2B0407ED0E3F16D63EF8E5FFDFEFFC0B1522E306ED1806EA070903F411EBF834050CFE171EECF1FA1C021403F9EBF20CEFF11613F1EF1724FB2FEFFCF315FD151CFB07F402F70300DEF8F807180A1B1FFBE517F4FEEDECF9FF13030D0609FF2B12F50D02DFF812FAFC15CEF307DDF30FE3F503F5EE1FFBFAF90E8179D7E9CA1A111CF4223BF3EF2C10E22515FBC7ECEA3B19FE0F3124F11B1011EAD417E8EEFBFD09E21527F6E6F8070F0CE11BF0E1D0BFE1E85716D228020EC211150CCF1DF51F0433FE03030842EFEB1B00273E030C01E7491FDFE7FCFEFE46EB21F4F9D008D9041B990400F6E9F2F012CAEFBDDAD7F51D04F3FB1AF9D2030703E107ED0FE8EADCE5F1DCD90AF7213207CEEB2BCDD71F04FEF6F82DD4E2FA5608D30D1513C6E7E50B4E491FF524181A1C29E9DC0613DF1511A7CE21FC322EFB2B1FC60C012936F014F010ACF20BE7083BD51AC0FC100003FCE407E5B52D30C71EE9FDCD091B03E245F2D306B91DFCFEF2F51107EC3CF3DFFC002108F4370D06D636F01AFA0030111613152EFE1F09F2B11604DDDF02F634F213E1B9F90540EAF2EF1E1FFA1802F5011818FB1204ED07FE0713E7E1F3F3C9200FFB211CF005FBFBFE1819ED0B0710FE0117E021E10BF6F217F102EAF62CEAFBF3FD01CACC0D19D3F9F806E135EAED0B3020DE09DD06111C1B3415F2EE15F803F6140F2939E6EFA35DD005DD0621F9F918C53327DE164C0ACA1AEFEAFED90CE9C8151B19F84907FD26FD05FEFBF2FD201411E71304200B0A0A0CCBECB52F373DF216FBFD21FD2A001322E6E91CF2CAE8F31B0E010DF5030F06420C081EEF22CEFFE8EE1800F2F6F8FED60AF1EBEEF3EB2DFEF7040CFEEEFE0D12E2DF05D0F905060CD8FB1137F1173BD5F4140DF012F4F6DE18F30218C8E022FE1EFA08CFFBEB14F700F615F51B4CF6FF1CF4311E10DB1219E7DECED81F0D2101F301DDCBED01C8022E0426540A0124D3F133DF151214F2D6FE29F7F9C11806EC380CD424F71BFCEB0209E5E01F08012403E6FC17D9E4F2E4FEDC18F4D4F0EC03FEEE0DEC2609FCF2F8142507190AF61FFDCAFBEA160E361C01CC050400133A12F08107FAF8C7DD03030DF936F600070D051A1605E9FF07001AFCE2F321EC200F061EE7E219F5101502F1F5F1F608221C17EE00DF070203EAF912E3F4F1F509060B17EE04041115F4DFECE80429F4F105F70D071813F112FAFAE50207FF0AE7FDF9FF10F7E3F701FB0EFD0114EF8178D503D5E8FE1C1D111733CA0206E9F2CC2B442BDBFA35DEF8DFE0E2ED1627DD06D0C342281CF927C0D136030B61EC0AE81C1012E81703E621FAD7FB26F31A36E30F1416D2F9F60E30F403D3062CC1E60D0E0A118E0306F1E94409020BEF37DEF91E03E2D60EBE010916E3DF0BFC4B0B0EE805DCE7193610D1DDF41E2D0AC702DCCDFC16E7E3E03B2CF44227F71C0CEA49E706C60A00093C2504F3EFFD25181105DD15F70A23080407DF2CFF033716E61619B9BEE52BF3072207093ED9110C04EDEE06021418FD1FE7FAD2B500020F5204D4D91723E82C1CE2FD280534ECDFF312F50B12DBE93146C1FA21254BF3191FEDE4F222FEED4E36D21B08E709FECA09E7232FD4EE3FE239FE081101EFCAF7F92DD82FE428EF03421A0FD107E626F3442A2CEFEA040901050AEF1BF9DDD02EF4F62FF314FBF3EA1200D7FF05E60205E71E111FF8121A0703DBECF10715ED13FFECCD131D0C03041306130CE81DE9D3F01419E71FFD0209020031FE0CFEF1FF06DAEDE9E41528E305FF0DFF20F809FC5EA47FE90F271E27B0E131DD0106EC3FF72E0919C13BE61645E9CA1D230116ECD04AFC53571EDD000DF4DC1600D913400F1F1926CEF627F2E2123601F8FC0F444AD9071A400C151DE22E3EEFB502E5FC0E392C091A201A09E021D6C1FCE2C82F19524FF8F0E80405E244FF1C1FED1FCAFCEA0FE7E9D5073A31E813260D3FC902ED0820E6CE270C0508C5E90500000A12E20FEDDB0E1D4FD6EA20123607E0F4F702081AEA0AFA220BF2191DC523FEF11FEEDA40E02F140A09E002274603DB39D9ECFC030CF33114E5FB02D60915D529C94604D4CC12D70B085CE8F9FFDFFF13F21302D7E8F905C8D9BFF28CA6FBE54CAEB8F128160EF7EE132A0FD1C911F3C837C22AE4CE1211FBE3EBEC032218BFFA271B1603CDFECBF10A060C9108D7040BEF1BFDC6D81002FA1607ECDB0FEF0008E31B1CF712F7F0F518CEFCF1E8F1F5F22518F615F2070F0CF9210AFA131E10F10604D20D05110AF6F6F215F101EF000FF72106FC0F0B0BD90AF60400DBE3FDFF01FCE1CDE713EF03F4E111051DFC15022C837FD111DC270DD3DE23033A30C4342BE5D7FDFCEC310C1C11CE34412CF9FFD9054314DC052B1CF5D91F474AEFF90428F8FB091DF3C42E31F304DFF611E2EE041B0F0605FF020928040C1F0C0DE737F4DFD9F3ECD0FEF11CEAD0F0CABA12DCF9F3053A0EC4CF1AA016DAE5C6F3E02B03F1CD2608FB2125DC1DEDD61EEBD50DFE4C0AF53E0218E434041A133C0C1D0CFB041BD120FA34E916D042FA1EE316F9D129F01AF21926CA003B28671046FDE6E1DEDCE91718D6005411D417FCEEE108F21FEB14C107F9D8FADF001ACAFDFDD711D1FE33FBE9DAFB11FFF43323D3100CCDE6D7230AE7DC2744F82A0108FD1C1AF6D706E82807392701F83AF6D033F8F3FE1A20C11EF8EF09BDEEC320330A14FFC2E9C3D81F1EC7F42D2003E8FFAC1001FDF9E91EE2FF1DECDBF7FBDFF50109FD0113F1E9D0E002ECFFF401FBDDE506F015F0040504242401DE070F0BF80A07E21510F2FDF3100F0E11F5F7EF0F02051DFA1AFA08181207E2290A11DD01010A08190BDE0EE1EE1D0E001611F620FEFB1515887AAA20C1CB912FF71C3FEB9BDF0C0FF5D719F7DF0D0CEAD5C1100C39FEDEE1FDE942EFEC20FC07DBE6E7515DBF186AB3C1F8E524220FDAFE271AC201F6C334E22C433DA14CE210D017EB16E5CE33ED15F50E0E1614F6F7F63B50D0DCD5FE9BD0F01941DB461F3C3331F9B705CA1F2133DBFD1A297A1B23DCD1F8DFD0E7D924DF3703F813E5302532BBC903EECEFA38DF07DE1D160CF3A610DEEC41EF372DFD66EA25072C110E2CCE0DFF1DF133D8FA3CFCB427E1FF2C0DC90220E9F8090E08F608E909F9D82D12AEE8EB2EEF451B01FE2E01CF430014F9281B69E900271F44B90DC00D3E05FC11000E3A125720EB1DF6AD048E2AE4DC04164607E7CE45E3FCB71520D2B30D2D1A12E64A13EEE8101740020ED2F4850837102781F3E9DDF8F4B013E0C54F17ED0C0B14F8FB320E0E1417FF12111414110B0722DF132DFDFDEF010B300504140606F10FE8360C02FF0DD4E0FEFFF0FBFE06E20F0E25E7F72A0DF3171E03F5ECEDD4D4F9EE0507E51FFD070132D0F00D10070DD6FC09FA05F8188272BCE0C1DCFB0D322DB7BA9DCBC23B36FF1924A3FE4E1500F7C6AD0D3C3CE5F10331A80C166D4D031601DA92450F73D4CB4904006105B6FCFC44530F2B0AF60F3F1018F83CFA200032CAB7F4D8EB17C2F5F5103B01E0DEDADA5CDFF9DF020FCD211C31E51D18E924C1E200262211EF31162F0460DCE9C023ED22DF3C26F83E13E5E8BAEF35D2210CFCEBE33114E9F7BC613814070A5B0DD719FF55A6F118D72EEFF5A924E1241EECEC46C30BF20FE90A05D141D809ECEAF4F84C224715EB21E0C06F1927982A1BDA1AE7F300FED356FA223136070AE73F18AEE92D5BDF12DDEDDE0BD6F82EE1F9321E012EE1F7C681C72FE6FC1329F4F22918C7395C05F50A181EA90A0AF32BFC00192ECC071D1302D02BEF06D5182948E007F0DE210D29E70FDD0DCAD81612D9F5F3111001FC432428DFE51BF8EEF3E6FAFE353701F11D2A2BD210FDF3F208FB021FF8FE092ACDD8FF1D290712FEF601EB251313F51A09EE03E01C35F72CCAFAF7FDEAD8F5DB000E0807FAF1F720140DF91A28F401FD0AC37C8C4EDB20B00E20E3D00309EF1EB92AE96F003802F2210EAC6A32152AECC3DBFC1F13EFC7F23C0AD92738123512DBE0ECC61FFBE7DDCE27D80F3638E724E2EC7FE2F302113009F5CECA30EE2CF5213419192CED00FEEADEC407CCD913DC0E22E709C2E2383CFBD1353206AF30DC2C23F8DCE6C7D2510215C0F0474ADBFAE9F00C200A25F0D3F4E8EAF49E54FC27100D1DFA13F80D3BD746C430F80F1A1613EED00DC4B7ECDCF2E34CF452B82FF6BA30EBDCDD480AE1F6C2D6FF110213E5B9483605EFDF99CEEB03E9082523EBEBE3D4172125D9F9FA5DDEFDC21D0A1EF5CEEB1D06DDDE1ECADB00F706DC0FCECAE636E92144E8A50F065E35D010E2E80AE41B11092D1809DA0715F91AF9D9FFFBE711130109D6ED320F080BDD02BEFBF6091E1227E614E2000B25E51108F3F0F8F2EAE7000019F2DD1CF1F6EF0BE50401FCD6FA1317FE2B0C1F15EADE1BE62B0FF5ED05D4F6FEFE04F9E21917E72A12FDF3DC1008F2F6ECF8EDFFD4E1E1FF23EBE2F1F00C0DF01DE327031307F9F00E1D1E12867FCF10D0EBD01A1C28E002CFD4E1AEF2051CC021ED0BCCF623D3070409A10443D0DB04DDF214C61BF3F8BAB0D1A2B5F91215172FDA1C04ED0C03CF20CC4204E0303CD6D5FECBEDD